WIDTH = 32;
DEPTH = 50176;

ADDRESS_RADIX = DEC;
DATA_RADIX = HEX;

CONTENT BEGIN
0 : fffffffb;
1 : fffffffb;
2 : fffffff6;
3 : 0000000a;
4 : 00000003;
5 : 0000000a;
6 : fffffffb;
7 : 00000000;
8 : 00000000;
9 : 00000005;
10 : fffffff1;
11 : 0000000a;
12 : fffffffd;
13 : 00000003;
14 : fffffff8;
15 : fffffff6;
16 : fffffffb;
17 : fffffffb;
18 : 00000003;
19 : fffffffb;
20 : 00000000;
21 : 00000000;
22 : fffffffb;
23 : 00000003;
24 : 00000003;
25 : 00000008;
26 : 00000003;
27 : fffffff6;
28 : fffffff1;
29 : 0000000a;
30 : 00000008;
31 : fffffffd;
32 : fffffff6;
33 : fffffff6;
34 : fffffff8;
35 : 00000000;
36 : 00000005;
37 : fffffffd;
38 : fffffffd;
39 : 00000000;
40 : 0000000a;
41 : fffffffb;
42 : 00000000;
43 : 00000000;
44 : 0000000f;
45 : 00000005;
46 : fffffff6;
47 : fffffff6;
48 : 0000000a;
49 : fffffff8;
50 : 0000000f;
51 : fffffff2;
52 : 00000014;
53 : 0000000a;
54 : fffffffd;
55 : 0000000f;
56 : fffffff8;
57 : fffffff6;
58 : 00000003;
59 : 00000005;
60 : 00000005;
61 : fffffff6;
62 : fffffffd;
63 : 00000003;
64 : fffffffd;
65 : fffffffb;
66 : 00000000;
67 : 00000005;
68 : fffffffb;
69 : 00000000;
70 : fffffffd;
71 : fffffffd;
72 : fffffff8;
73 : 00000005;
74 : fffffff6;
75 : 00000008;
76 : 00000000;
77 : 0000000f;
78 : fffffffb;
79 : 00000005;
80 : 0000000a;
81 : fffffff1;
82 : fffffff1;
83 : 00000005;
84 : fffffffb;
85 : 00000000;
86 : 0000000a;
87 : fffffffd;
88 : 00000000;
89 : 0000000a;
90 : fffffffb;
91 : fffffff6;
92 : fffffff1;
93 : fffffffd;
94 : 00000005;
95 : 00000005;
96 : 00000003;
97 : ffffffed;
98 : fffffffb;
99 : fffffff8;
100 : 0000000f;
101 : fffffffb;
102 : fffffffb;
103 : 00000008;
104 : fffffffb;
105 : 00000008;
106 : 00000005;
107 : fffffffb;
108 : 00000005;
109 : 0000000a;
110 : fffffff8;
111 : fffffff6;
112 : 00000005;
113 : 0000000a;
114 : 0000000a;
115 : fffffff1;
116 : 0000000a;
117 : 00000003;
118 : 00000005;
119 : 00000003;
120 : 0000000f;
121 : 0000000f;
122 : 00000000;
123 : 00000000;
124 : 0000000a;
125 : 00000005;
126 : 00000000;
127 : fffffffd;
128 : 00000000;
129 : fffffff6;
130 : 00000000;
131 : 0000000a;
132 : fffffffb;
133 : 00000000;
134 : fffffffd;
135 : 00000005;
136 : 00000003;
137 : 00000005;
138 : 00000014;
139 : fffffff8;
140 : fffffffd;
141 : 00000003;
142 : fffffffd;
143 : fffffffb;
144 : 00000000;
145 : fffffffd;
146 : fffffffb;
147 : 00000000;
148 : 0000000f;
149 : fffffffb;
150 : fffffff1;
151 : 00000000;
152 : fffffff8;
153 : fffffffb;
154 : 0000000a;
155 : fffffffb;
156 : 00000005;
157 : fffffff6;
158 : ffffffea;
159 : fffffffd;
160 : fffffff6;
161 : fffffffd;
162 : fffffff8;
163 : ffffffed;
164 : fffffffb;
165 : 0000000a;
166 : 00000000;
167 : 00000000;
168 : ffffffed;
169 : 00000003;
170 : fffffffd;
171 : 00000000;
172 : fffffffd;
173 : fffffffd;
174 : 00000019;
175 : 00000000;
176 : fffffffd;
177 : fffffffb;
178 : 00000003;
179 : fffffffd;
180 : fffffffb;
181 : fffffff8;
182 : 00000005;
183 : fffffffb;
184 : 00000000;
185 : 00000005;
186 : fffffffd;
187 : 00000000;
188 : 00000003;
189 : 00000005;
190 : 00000003;
191 : 00000000;
192 : 00000000;
193 : 00000005;
194 : fffffffd;
195 : 00000005;
196 : 0000000a;
197 : 00000008;
198 : fffffff6;
199 : 0000000f;
200 : 00000005;
201 : 00000008;
202 : 00000005;
203 : fffffffd;
204 : fffffffb;
205 : fffffffb;
206 : 0000000f;
207 : 00000005;
208 : fffffffd;
209 : 00000008;
210 : 00000003;
211 : fffffff8;
212 : fffffffb;
213 : fffffffd;
214 : 0000000a;
215 : 00000005;
216 : 00000005;
217 : fffffff6;
218 : fffffffb;
219 : 00000003;
220 : fffffff8;
221 : fffffff6;
222 : 00000008;
223 : 0000000a;
224 : fffffff2;
225 : fffffffd;
226 : 0000000a;
227 : fffffffb;
228 : fffffff2;
229 : 00000003;
230 : 0000000a;
231 : 0000000a;
232 : fffffff8;
233 : 00000005;
234 : 00000005;
235 : 00000000;
236 : 0000000f;
237 : 00000000;
238 : 00000003;
239 : fffffff6;
240 : fffffffb;
241 : 00000003;
242 : fffffff6;
243 : 00000000;
244 : 00000005;
245 : 00000005;
246 : 00000000;
247 : 00000000;
248 : fffffff6;
249 : 0000000a;
250 : fffffff6;
251 : fffffffd;
252 : 00000008;
253 : fffffff6;
254 : 00000000;
255 : 00000000;
256 : 00000008;
257 : 00000003;
258 : fffffffb;
259 : 00000000;
260 : fffffff6;
261 : 00000003;
262 : fffffffb;
263 : 00000000;
264 : fffffffd;
265 : 00000003;
266 : fffffffb;
267 : fffffff8;
268 : fffffff8;
269 : 00000000;
270 : fffffff1;
271 : 0000000a;
272 : 00000005;
273 : 00000003;
274 : fffffff8;
275 : fffffffb;
276 : fffffffb;
277 : ffffffed;
278 : fffffff8;
279 : 00000003;
280 : 0000000a;
281 : 00000003;
282 : 0000000f;
283 : fffffff6;
284 : fffffffb;
285 : fffffff8;
286 : 00000003;
287 : fffffff8;
288 : fffffffb;
289 : 00000003;
290 : fffffff6;
291 : 00000005;
292 : fffffffb;
293 : fffffffd;
294 : fffffff2;
295 : 00000003;
296 : 00000000;
297 : 00000003;
298 : 00000000;
299 : 00000003;
300 : 00000000;
301 : 0000000f;
302 : fffffffb;
303 : 0000000f;
304 : fffffffd;
305 : 00000000;
306 : fffffff8;
307 : 0000000f;
308 : 00000000;
309 : 0000000a;
310 : 00000003;
311 : fffffff6;
312 : 00000000;
313 : fffffffd;
314 : 00000005;
315 : 00000005;
316 : 00000000;
317 : 0000000f;
318 : 00000005;
319 : 00000005;
320 : 00000000;
321 : fffffff8;
322 : 00000005;
323 : fffffffd;
324 : fffffffd;
325 : ffffffed;
326 : 00000000;
327 : 0000000a;
328 : 0000000a;
329 : 00000000;
330 : fffffffb;
331 : 00000005;
332 : 00000000;
333 : 0000000a;
334 : fffffff6;
335 : fffffffb;
336 : fffffff8;
337 : fffffff1;
338 : 00000014;
339 : 00000000;
340 : 00000003;
341 : 00000005;
342 : 00000005;
343 : 00000000;
344 : ffffffed;
345 : fffffffb;
346 : fffffffb;
347 : fffffff6;
348 : 00000003;
349 : fffffffb;
350 : 00000005;
351 : fffffff2;
352 : 00000000;
353 : fffffffb;
354 : 0000000f;
355 : 00000000;
356 : 00000003;
357 : 0000000f;
358 : 00000000;
359 : 00000000;
360 : 00000008;
361 : fffffffb;
362 : 00000000;
363 : fffffffd;
364 : fffffff6;
365 : 0000000a;
366 : 0000000a;
367 : 00000000;
368 : fffffff1;
369 : fffffffd;
370 : 00000000;
371 : 00000000;
372 : fffffff1;
373 : 00000005;
374 : 00000000;
375 : 0000000a;
376 : 00000000;
377 : fffffff6;
378 : fffffffd;
379 : 0000000a;
380 : fffffffd;
381 : 0000000a;
382 : fffffffb;
383 : 00000000;
384 : ffffffed;
385 : fffffffb;
386 : fffffffd;
387 : fffffffb;
388 : 00000000;
389 : fffffffd;
390 : 00000000;
391 : fffffffd;
392 : fffffffd;
393 : fffffff6;
394 : 00000003;
395 : 00000005;
396 : fffffffd;
397 : 00000000;
398 : 00000005;
399 : 00000005;
400 : fffffff6;
401 : 00000003;
402 : 00000000;
403 : 00000003;
404 : fffffffd;
405 : 00000003;
406 : fffffffd;
407 : 00000005;
408 : fffffffd;
409 : fffffffd;
410 : 00000005;
411 : ffffffed;
412 : 00000014;
413 : 00000003;
414 : 00000005;
415 : 00000008;
416 : 0000000a;
417 : 0000000a;
418 : fffffffb;
419 : 00000005;
420 : 0000000f;
421 : 0000000a;
422 : fffffffb;
423 : 00000003;
424 : 00000000;
425 : 00000003;
426 : fffffffb;
427 : fffffff6;
428 : fffffff8;
429 : 00000003;
430 : fffffffb;
431 : fffffffd;
432 : 00000005;
433 : 00000000;
434 : fffffff8;
435 : 00000005;
436 : 00000000;
437 : 00000000;
438 : fffffff6;
439 : fffffffb;
440 : 00000003;
441 : fffffff6;
442 : 00000008;
443 : 00000005;
444 : 00000005;
445 : fffffff6;
446 : 00000014;
447 : 00000000;
448 : 00000000;
449 : fffffffb;
450 : 0000000f;
451 : fffffffd;
452 : fffffffb;
453 : 00000003;
454 : 00000000;
455 : 0000000a;
456 : fffffff8;
457 : fffffffb;
458 : 00000003;
459 : 00000005;
460 : 00000000;
461 : 00000000;
462 : fffffffd;
463 : fffffff2;
464 : 00000000;
465 : fffffff6;
466 : 00000000;
467 : fffffff8;
468 : 00000005;
469 : fffffffb;
470 : 0000000a;
471 : 00000003;
472 : fffffffb;
473 : fffffffb;
474 : 00000003;
475 : 00000000;
476 : fffffffd;
477 : fffffff6;
478 : 00000000;
479 : fffffffd;
480 : fffffff6;
481 : fffffff8;
482 : 00000000;
483 : 00000000;
484 : fffffff6;
485 : 00000008;
486 : fffffffb;
487 : 0000000f;
488 : 00000008;
489 : 00000005;
490 : 00000003;
491 : 00000003;
492 : 0000000f;
493 : 00000000;
494 : 00000014;
495 : 0000000f;
496 : 00000005;
497 : fffffffb;
498 : fffffffb;
499 : 00000005;
500 : fffffffd;
501 : 00000003;
502 : 00000000;
503 : 00000003;
504 : 00000008;
505 : 00000000;
506 : 00000000;
507 : 00000003;
508 : 00000008;
509 : 00000003;
510 : 0000000a;
511 : 0000000a;
512 : 00000003;
513 : 00000005;
514 : fffffff8;
515 : fffffffb;
516 : fffffffb;
517 : 00000003;
518 : fffffffd;
519 : 00000005;
520 : 00000005;
521 : fffffffb;
522 : 0000000f;
523 : fffffff2;
524 : fffffffd;
525 : 0000000a;
526 : fffffffb;
527 : 00000008;
528 : 00000003;
529 : 00000005;
530 : fffffffd;
531 : fffffffb;
532 : fffffffb;
533 : 0000000a;
534 : fffffffb;
535 : fffffffb;
536 : fffffff6;
537 : fffffff8;
538 : 00000000;
539 : 00000000;
540 : fffffffb;
541 : ffffffed;
542 : 00000000;
543 : 00000005;
544 : 0000000a;
545 : fffffffd;
546 : 0000000f;
547 : fffffffd;
548 : 00000003;
549 : fffffff8;
550 : 0000000f;
551 : 0000000a;
552 : 00000000;
553 : 00000000;
554 : 00000003;
555 : fffffff6;
556 : 00000005;
557 : 00000000;
558 : fffffff6;
559 : 0000000f;
560 : 00000008;
561 : 00000003;
562 : fffffffd;
563 : fffffff1;
564 : fffffff6;
565 : 00000005;
566 : 0000000f;
567 : fffffff8;
568 : 00000005;
569 : 0000000a;
570 : fffffff6;
571 : 00000000;
572 : ffffffed;
573 : 00000000;
574 : fffffff8;
575 : 0000000a;
576 : 00000005;
577 : 00000000;
578 : fffffffb;
579 : 00000000;
580 : 00000003;
581 : 00000000;
582 : fffffffd;
583 : fffffffd;
584 : 0000000a;
585 : 00000000;
586 : 00000000;
587 : fffffffb;
588 : fffffff8;
589 : fffffff6;
590 : 00000005;
591 : 00000003;
592 : 00000005;
593 : fffffffd;
594 : ffffffed;
595 : 00000005;
596 : 0000000a;
597 : fffffff1;
598 : fffffffb;
599 : 0000000f;
600 : fffffffd;
601 : fffffffb;
602 : 0000000a;
603 : 00000000;
604 : 00000000;
605 : 00000000;
606 : fffffff6;
607 : 00000000;
608 : 00000003;
609 : 00000000;
610 : 0000000a;
611 : 00000000;
612 : fffffff8;
613 : 0000000a;
614 : 00000005;
615 : 00000005;
616 : fffffffb;
617 : 00000000;
618 : 0000000a;
619 : 0000000a;
620 : fffffffb;
621 : fffffff4;
622 : fffffff8;
623 : 00000000;
624 : 0000000a;
625 : fffffff8;
626 : 0000000a;
627 : 0000000f;
628 : 00000000;
629 : 0000000f;
630 : fffffffd;
631 : fffffff8;
632 : 00000005;
633 : fffffffb;
634 : 0000000a;
635 : 00000003;
636 : ffffffed;
637 : 0000000a;
638 : fffffffb;
639 : 00000005;
640 : fffffffd;
641 : fffffff1;
642 : 00000005;
643 : 0000000f;
644 : 00000000;
645 : fffffffd;
646 : 0000000a;
647 : 0000000a;
648 : 00000000;
649 : fffffff6;
650 : fffffffb;
651 : 00000000;
652 : fffffffd;
653 : 00000000;
654 : fffffff2;
655 : fffffff8;
656 : 00000005;
657 : 0000000a;
658 : fffffff8;
659 : fffffff6;
660 : ffffffed;
661 : 00000000;
662 : 00000003;
663 : 00000008;
664 : 0000000a;
665 : 00000000;
666 : fffffff6;
667 : fffffff1;
668 : 00000005;
669 : fffffff6;
670 : fffffffd;
671 : fffffff2;
672 : 00000000;
673 : 00000003;
674 : 0000000f;
675 : 00000000;
676 : ffffffed;
677 : fffffffd;
678 : fffffff2;
679 : 00000005;
680 : fffffff2;
681 : 00000000;
682 : 00000005;
683 : 00000014;
684 : 00000005;
685 : fffffff6;
686 : fffffff8;
687 : 00000000;
688 : 0000000a;
689 : fffffff1;
690 : 0000000f;
691 : 00000000;
692 : 00000003;
693 : fffffffd;
694 : 00000000;
695 : 00000014;
696 : 00000000;
697 : fffffff2;
698 : fffffff6;
699 : fffffffd;
700 : 00000000;
701 : 00000003;
702 : 00000003;
703 : fffffff8;
704 : fffffff6;
705 : 0000000f;
706 : 00000014;
707 : fffffff8;
708 : 0000000a;
709 : fffffff6;
710 : 0000000a;
711 : fffffff1;
712 : fffffffb;
713 : 00000003;
714 : 00000005;
715 : 00000005;
716 : fffffff6;
717 : 00000003;
718 : 00000005;
719 : 0000000a;
720 : 00000008;
721 : 0000000a;
722 : 00000003;
723 : 00000014;
724 : fffffff6;
725 : fffffffb;
726 : 00000000;
727 : 00000005;
728 : 0000000a;
729 : fffffffb;
730 : 00000005;
731 : 00000003;
732 : 00000005;
733 : 00000003;
734 : fffffffb;
735 : fffffff1;
736 : fffffff6;
737 : 00000000;
738 : 0000000a;
739 : 0000000a;
740 : fffffffd;
741 : 00000005;
742 : 00000005;
743 : 00000000;
744 : 0000000a;
745 : fffffff6;
746 : 00000000;
747 : 00000005;
748 : 00000000;
749 : fffffffd;
750 : 00000005;
751 : fffffffb;
752 : 00000008;
753 : 00000008;
754 : fffffff8;
755 : fffffffb;
756 : 0000000a;
757 : fffffff2;
758 : fffffff2;
759 : 0000000a;
760 : fffffff4;
761 : 0000000a;
762 : 00000005;
763 : 0000000a;
764 : fffffff4;
765 : 00000005;
766 : 00000000;
767 : fffffff6;
768 : 00000003;
769 : 00000005;
770 : ffffffed;
771 : 0000000f;
772 : 00000005;
773 : 00000000;
774 : 0000000f;
775 : 00000005;
776 : 00000003;
777 : 0000000a;
778 : 0000000a;
779 : fffffff4;
780 : fffffffb;
781 : 00000005;
782 : 00000000;
783 : 0000000f;
784 : fffffffd;
785 : fffffff1;
786 : 0000000a;
787 : 0000000a;
788 : fffffff2;
789 : fffffffd;
790 : fffffff6;
791 : fffffff8;
792 : fffffffb;
793 : fffffffb;
794 : 0000000f;
795 : fffffffb;
796 : fffffffd;
797 : fffffff2;
798 : fffffffb;
799 : 00000003;
800 : 00000003;
801 : 0000000a;
802 : 00000003;
803 : 00000005;
804 : 0000000a;
805 : fffffff8;
806 : 00000005;
807 : 00000000;
808 : fffffffb;
809 : fffffff6;
810 : 00000005;
811 : 0000000a;
812 : 00000000;
813 : 00000005;
814 : 0000000a;
815 : 00000003;
816 : 00000005;
817 : 00000000;
818 : 00000005;
819 : 00000000;
820 : 00000000;
821 : 0000000a;
822 : fffffff6;
823 : 00000005;
824 : 0000000a;
825 : fffffff2;
826 : 0000000f;
827 : fffffffb;
828 : fffffffd;
829 : 0000000f;
830 : fffffff8;
831 : 0000000a;
832 : 0000000a;
833 : fffffff6;
834 : fffffffb;
835 : 00000000;
836 : 00000003;
837 : fffffff6;
838 : 00000005;
839 : 00000000;
840 : 0000000a;
841 : fffffffd;
842 : 00000000;
843 : fffffff8;
844 : fffffffd;
845 : 0000000f;
846 : 0000000a;
847 : fffffffd;
848 : 00000014;
849 : fffffffb;
850 : fffffffb;
851 : 00000000;
852 : 0000000a;
853 : 00000005;
854 : fffffff6;
855 : fffffff2;
856 : 0000000f;
857 : fffffff6;
858 : 00000005;
859 : 00000003;
860 : 00000000;
861 : fffffffd;
862 : 00000000;
863 : 00000000;
864 : fffffff8;
865 : fffffff8;
866 : 00000008;
867 : 00000005;
868 : 0000000f;
869 : 00000000;
870 : 00000014;
871 : 00000003;
872 : 00000000;
873 : 00000005;
874 : fffffffb;
875 : fffffff1;
876 : 00000000;
877 : 00000005;
878 : fffffff8;
879 : fffffff1;
880 : fffffffd;
881 : fffffff8;
882 : fffffff8;
883 : 00000005;
884 : fffffffd;
885 : 00000003;
886 : 0000000a;
887 : fffffffd;
888 : fffffffd;
889 : fffffff6;
890 : 00000005;
891 : fffffffd;
892 : fffffff6;
893 : 00000005;
894 : 00000005;
895 : fffffff6;
896 : 0000000f;
897 : 0000000a;
898 : fffffff6;
899 : fffffff8;
900 : fffffffb;
901 : 0000000a;
902 : 00000008;
903 : fffffffb;
904 : 00000000;
905 : 0000000a;
906 : 0000000a;
907 : fffffffb;
908 : 0000000a;
909 : 0000000f;
910 : fffffffb;
911 : 00000005;
912 : 0000000f;
913 : fffffffd;
914 : fffffffd;
915 : fffffffb;
916 : 00000000;
917 : fffffff6;
918 : fffffffb;
919 : 00000000;
920 : 0000000a;
921 : 00000000;
922 : ffffffed;
923 : fffffffb;
924 : 00000000;
925 : 00000000;
926 : 00000005;
927 : 0000000a;
928 : 00000000;
929 : fffffff8;
930 : 0000000f;
931 : fffffffb;
932 : 00000005;
933 : 0000000a;
934 : 00000005;
935 : fffffffb;
936 : 0000000a;
937 : 00000005;
938 : fffffff6;
939 : 00000000;
940 : 00000000;
941 : 00000000;
942 : fffffffb;
943 : 00000005;
944 : 00000005;
945 : fffffffb;
946 : fffffffd;
947 : 00000003;
948 : 0000000f;
949 : 00000005;
950 : 0000000a;
951 : 00000000;
952 : 00000000;
953 : 0000000a;
954 : 00000005;
955 : 00000000;
956 : 00000008;
957 : 00000005;
958 : 00000000;
959 : fffffffd;
960 : 00000005;
961 : 00000014;
962 : 0000000f;
963 : fffffffb;
964 : 00000008;
965 : fffffffb;
966 : 00000003;
967 : fffffff6;
968 : 00000003;
969 : 00000000;
970 : 00000008;
971 : fffffffb;
972 : 00000000;
973 : 00000005;
974 : 00000000;
975 : 0000000f;
976 : 00000000;
977 : 00000000;
978 : 00000005;
979 : 00000000;
980 : fffffffd;
981 : 00000005;
982 : fffffff6;
983 : 00000003;
984 : fffffffb;
985 : fffffffd;
986 : 00000005;
987 : fffffff2;
988 : 00000005;
989 : fffffffd;
990 : 00000003;
991 : fffffffb;
992 : 0000000f;
993 : 00000000;
994 : 0000000a;
995 : 00000000;
996 : 00000000;
997 : fffffffd;
998 : ffffffef;
999 : ffffffed;
1000 : 00000005;
1001 : fffffffb;
1002 : 00000000;
1003 : 0000000f;
1004 : fffffffd;
1005 : 00000000;
1006 : 00000000;
1007 : 00000000;
1008 : 00000008;
1009 : 00000003;
1010 : fffffff2;
1011 : 0000000a;
1012 : 0000000a;
1013 : fffffffb;
1014 : 00000000;
1015 : fffffff6;
1016 : fffffffb;
1017 : 00000000;
1018 : 00000000;
1019 : fffffffd;
1020 : 0000000a;
1021 : 00000008;
1022 : fffffff8;
1023 : 00000005;
1024 : ffffffed;
1025 : 00000005;
1026 : fffffffd;
1027 : fffffffd;
1028 : fffffffb;
1029 : 0000000a;
1030 : fffffff8;
1031 : 00000000;
1032 : fffffffd;
1033 : 00000005;
1034 : 00000003;
1035 : 0000000f;
1036 : 00000000;
1037 : 0000000a;
1038 : fffffffd;
1039 : fffffffb;
1040 : fffffffb;
1041 : 00000000;
1042 : 00000008;
1043 : 00000000;
1044 : 00000008;
1045 : fffffffb;
1046 : fffffff6;
1047 : 00000005;
1048 : 00000000;
1049 : 00000000;
1050 : 0000000a;
1051 : 00000003;
1052 : fffffffd;
1053 : ffffffef;
1054 : 00000003;
1055 : 00000000;
1056 : 00000005;
1057 : 00000000;
1058 : 0000000a;
1059 : fffffffd;
1060 : fffffffb;
1061 : fffffff2;
1062 : 00000003;
1063 : fffffff1;
1064 : 0000000a;
1065 : fffffff6;
1066 : fffffff1;
1067 : 00000011;
1068 : 0000000a;
1069 : 00000003;
1070 : 00000003;
1071 : 00000005;
1072 : 00000005;
1073 : 00000000;
1074 : 00000008;
1075 : fffffff1;
1076 : 00000003;
1077 : fffffffb;
1078 : fffffffd;
1079 : fffffffd;
1080 : 00000000;
1081 : 00000000;
1082 : 00000005;
1083 : 00000003;
1084 : 0000000a;
1085 : 00000003;
1086 : 00000005;
1087 : 00000005;
1088 : fffffff2;
1089 : 00000000;
1090 : 00000000;
1091 : fffffffd;
1092 : 00000000;
1093 : 00000003;
1094 : fffffffd;
1095 : 0000000a;
1096 : fffffffb;
1097 : ffffffed;
1098 : fffffffd;
1099 : 00000005;
1100 : 0000000f;
1101 : 00000000;
1102 : fffffff8;
1103 : 0000000f;
1104 : 00000005;
1105 : 00000000;
1106 : 00000000;
1107 : 00000000;
1108 : fffffff6;
1109 : fffffffb;
1110 : fffffff2;
1111 : 00000005;
1112 : fffffff8;
1113 : fffffffd;
1114 : 00000005;
1115 : fffffffb;
1116 : 00000000;
1117 : 0000000a;
1118 : fffffffd;
1119 : fffffffd;
1120 : 00000000;
1121 : 0000000a;
1122 : 00000005;
1123 : 00000005;
1124 : fffffffd;
1125 : 00000000;
1126 : 00000000;
1127 : 00000003;
1128 : 00000003;
1129 : fffffffd;
1130 : 0000000f;
1131 : ffffffed;
1132 : fffffff6;
1133 : 0000000a;
1134 : 0000000a;
1135 : 00000005;
1136 : fffffffd;
1137 : 0000000a;
1138 : fffffffd;
1139 : 00000000;
1140 : 0000000a;
1141 : 00000003;
1142 : 00000014;
1143 : 0000000f;
1144 : 00000003;
1145 : fffffffd;
1146 : 00000005;
1147 : 00000000;
1148 : fffffffd;
1149 : fffffff8;
1150 : 00000003;
1151 : 0000000a;
1152 : 0000000a;
1153 : 00000000;
1154 : fffffffb;
1155 : fffffff6;
1156 : 0000000a;
1157 : fffffff1;
1158 : fffffffb;
1159 : 00000005;
1160 : 0000000a;
1161 : 00000000;
1162 : 00000008;
1163 : 0000000f;
1164 : 00000000;
1165 : fffffffb;
1166 : 00000000;
1167 : 00000005;
1168 : fffffffb;
1169 : 00000005;
1170 : 00000003;
1171 : fffffff8;
1172 : fffffffb;
1173 : fffffff1;
1174 : 00000000;
1175 : fffffff8;
1176 : fffffff6;
1177 : 00000005;
1178 : fffffffb;
1179 : fffffff8;
1180 : 0000000a;
1181 : 00000003;
1182 : fffffff2;
1183 : 00000000;
1184 : fffffff6;
1185 : 00000005;
1186 : 00000008;
1187 : 00000014;
1188 : fffffff2;
1189 : 0000000a;
1190 : 00000000;
1191 : 00000000;
1192 : fffffff6;
1193 : fffffffd;
1194 : 00000000;
1195 : 0000000f;
1196 : fffffffd;
1197 : 00000003;
1198 : 00000005;
1199 : 0000000a;
1200 : 00000008;
1201 : 00000005;
1202 : 0000000a;
1203 : 00000003;
1204 : fffffffd;
1205 : 00000005;
1206 : 0000000a;
1207 : 00000000;
1208 : fffffffb;
1209 : fffffffb;
1210 : 00000005;
1211 : fffffffd;
1212 : fffffffb;
1213 : fffffffb;
1214 : 00000014;
1215 : fffffffd;
1216 : 00000005;
1217 : 00000000;
1218 : fffffffd;
1219 : 00000005;
1220 : 0000000a;
1221 : 0000000a;
1222 : 00000005;
1223 : 0000000a;
1224 : 0000000a;
1225 : fffffffb;
1226 : fffffffb;
1227 : 00000000;
1228 : fffffff8;
1229 : 0000000a;
1230 : fffffff6;
1231 : 00000005;
1232 : 00000005;
1233 : 00000000;
1234 : fffffffd;
1235 : 00000005;
1236 : fffffff8;
1237 : 00000000;
1238 : 00000000;
1239 : 00000000;
1240 : fffffffb;
1241 : 00000000;
1242 : fffffffd;
1243 : ffffffed;
1244 : 00000003;
1245 : fffffffd;
1246 : fffffffb;
1247 : 00000000;
1248 : fffffffb;
1249 : 0000000f;
1250 : fffffff8;
1251 : 00000003;
1252 : 00000005;
1253 : 0000000a;
1254 : 0000000a;
1255 : 00000005;
1256 : 00000005;
1257 : 00000000;
1258 : 00000005;
1259 : 0000000a;
1260 : 00000000;
1261 : fffffffb;
1262 : fffffffb;
1263 : 0000000f;
1264 : fffffffb;
1265 : 0000000f;
1266 : 00000000;
1267 : fffffffb;
1268 : 00000000;
1269 : 0000000a;
1270 : fffffff8;
1271 : 0000000a;
1272 : 00000008;
1273 : 00000005;
1274 : 00000005;
1275 : 00000000;
1276 : fffffffd;
1277 : fffffff8;
1278 : 00000003;
1279 : 00000000;
1280 : 00000000;
1281 : 00000000;
1282 : 0000000a;
1283 : fffffffd;
1284 : fffffffb;
1285 : 00000000;
1286 : 00000000;
1287 : 0000000f;
1288 : 0000000a;
1289 : 0000000a;
1290 : 00000005;
1291 : 00000000;
1292 : 00000005;
1293 : 0000000a;
1294 : 00000003;
1295 : 00000005;
1296 : 00000005;
1297 : fffffff6;
1298 : fffffffd;
1299 : 0000000a;
1300 : fffffff6;
1301 : fffffffb;
1302 : 0000000a;
1303 : fffffff6;
1304 : fffffff8;
1305 : fffffff6;
1306 : 00000005;
1307 : 00000005;
1308 : fffffff6;
1309 : 0000000a;
1310 : 0000000f;
1311 : fffffff6;
1312 : 00000000;
1313 : 0000000f;
1314 : fffffff4;
1315 : 0000000a;
1316 : fffffffb;
1317 : fffffffb;
1318 : fffffffd;
1319 : 0000000a;
1320 : 00000000;
1321 : fffffff1;
1322 : 00000005;
1323 : 00000005;
1324 : fffffffb;
1325 : 00000005;
1326 : 00000005;
1327 : 0000000a;
1328 : 00000000;
1329 : fffffffd;
1330 : 00000000;
1331 : 00000000;
1332 : fffffff6;
1333 : 00000000;
1334 : fffffffb;
1335 : 0000000f;
1336 : fffffffd;
1337 : fffffffb;
1338 : 0000000a;
1339 : 0000000a;
1340 : 0000000a;
1341 : 00000000;
1342 : fffffffd;
1343 : fffffffb;
1344 : 00000000;
1345 : fffffff6;
1346 : 00000003;
1347 : 00000000;
1348 : 00000000;
1349 : 00000008;
1350 : ffffffed;
1351 : 00000000;
1352 : fffffffb;
1353 : fffffffd;
1354 : 00000000;
1355 : fffffffb;
1356 : fffffffb;
1357 : fffffffb;
1358 : 00000005;
1359 : 0000000a;
1360 : ffffffed;
1361 : fffffffd;
1362 : 00000005;
1363 : fffffffd;
1364 : fffffff8;
1365 : fffffff1;
1366 : 0000000a;
1367 : fffffff8;
1368 : fffffff1;
1369 : fffffff8;
1370 : fffffff8;
1371 : 0000000f;
1372 : fffffff1;
1373 : 00000005;
1374 : fffffff8;
1375 : 0000000a;
1376 : fffffff6;
1377 : 00000000;
1378 : fffffff6;
1379 : 00000005;
1380 : 00000000;
1381 : 0000000a;
1382 : 0000000a;
1383 : 0000000f;
1384 : 0000000f;
1385 : fffffffb;
1386 : 00000005;
1387 : 00000005;
1388 : fffffffd;
1389 : fffffff6;
1390 : 00000000;
1391 : fffffff6;
1392 : fffffff1;
1393 : 0000000f;
1394 : 00000005;
1395 : 00000003;
1396 : 00000005;
1397 : 00000005;
1398 : fffffffb;
1399 : fffffff8;
1400 : fffffff6;
1401 : 00000005;
1402 : 00000008;
1403 : 0000000f;
1404 : 00000005;
1405 : 00000005;
1406 : 0000000f;
1407 : 00000005;
1408 : fffffffd;
1409 : fffffffb;
1410 : 00000003;
1411 : 0000000a;
1412 : 00000000;
1413 : 00000008;
1414 : 00000000;
1415 : fffffff6;
1416 : fffffffd;
1417 : fffffffb;
1418 : 00000005;
1419 : 00000005;
1420 : 00000003;
1421 : fffffff8;
1422 : fffffffb;
1423 : 00000003;
1424 : 00000000;
1425 : fffffff2;
1426 : fffffffb;
1427 : 00000005;
1428 : fffffffd;
1429 : 00000005;
1430 : fffffffb;
1431 : 00000005;
1432 : fffffff6;
1433 : fffffffb;
1434 : 00000000;
1435 : 00000005;
1436 : 00000000;
1437 : 0000000a;
1438 : fffffffb;
1439 : 00000005;
1440 : 00000008;
1441 : 00000000;
1442 : 00000000;
1443 : 00000003;
1444 : 00000005;
1445 : 00000000;
1446 : fffffffb;
1447 : 00000008;
1448 : 0000000a;
1449 : fffffffb;
1450 : fffffffd;
1451 : 00000005;
1452 : 00000005;
1453 : fffffffb;
1454 : 0000000a;
1455 : fffffff8;
1456 : 0000000a;
1457 : 00000005;
1458 : 00000000;
1459 : fffffff6;
1460 : fffffff2;
1461 : 00000003;
1462 : fffffffb;
1463 : 00000000;
1464 : 0000000a;
1465 : 00000005;
1466 : 00000005;
1467 : 00000003;
1468 : fffffffd;
1469 : fffffff1;
1470 : 0000000f;
1471 : 00000000;
1472 : 0000000f;
1473 : fffffff6;
1474 : 00000005;
1475 : 00000005;
1476 : 00000005;
1477 : 00000003;
1478 : 00000000;
1479 : 00000005;
1480 : 00000003;
1481 : fffffffb;
1482 : 0000000a;
1483 : 00000005;
1484 : fffffffb;
1485 : 00000005;
1486 : fffffffd;
1487 : fffffffd;
1488 : 00000000;
1489 : fffffffb;
1490 : 00000005;
1491 : 00000003;
1492 : 0000000a;
1493 : 00000003;
1494 : 00000000;
1495 : fffffff6;
1496 : 00000000;
1497 : 00000005;
1498 : fffffffd;
1499 : 00000005;
1500 : fffffffb;
1501 : 0000000f;
1502 : 0000000f;
1503 : 00000000;
1504 : 0000000a;
1505 : fffffff6;
1506 : fffffffb;
1507 : 0000000a;
1508 : 00000003;
1509 : 00000000;
1510 : 00000003;
1511 : 00000014;
1512 : fffffff6;
1513 : 00000005;
1514 : 00000003;
1515 : fffffff8;
1516 : fffffffb;
1517 : 00000000;
1518 : 00000014;
1519 : fffffff8;
1520 : fffffff6;
1521 : 0000000f;
1522 : 00000003;
1523 : 00000000;
1524 : fffffff8;
1525 : 00000000;
1526 : 00000005;
1527 : 00000003;
1528 : 00000000;
1529 : fffffffb;
1530 : 00000005;
1531 : 00000003;
1532 : fffffff6;
1533 : 0000000a;
1534 : 00000005;
1535 : 00000000;
1536 : fffffffb;
1537 : 0000000a;
1538 : 0000000f;
1539 : 00000005;
1540 : fffffffd;
1541 : 00000003;
1542 : 0000000a;
1543 : fffffffb;
1544 : fffffff6;
1545 : fffffffb;
1546 : fffffff6;
1547 : 00000000;
1548 : fffffffd;
1549 : fffffffb;
1550 : fffffff6;
1551 : 00000003;
1552 : fffffff2;
1553 : 00000000;
1554 : ffffffed;
1555 : 00000000;
1556 : fffffffb;
1557 : fffffff8;
1558 : 0000000f;
1559 : 00000003;
1560 : 00000008;
1561 : 00000000;
1562 : 0000000a;
1563 : fffffffb;
1564 : fffffff8;
1565 : fffffff4;
1566 : 00000008;
1567 : 0000000f;
1568 : fffffff6;
1569 : fffffffb;
1570 : 0000000a;
1571 : fffffff1;
1572 : ffffffed;
1573 : 00000008;
1574 : 00000003;
1575 : 0000000a;
1576 : 0000000a;
1577 : ffffffef;
1578 : 00000003;
1579 : fffffff6;
1580 : 00000003;
1581 : fffffff6;
1582 : fffffffd;
1583 : fffffffb;
1584 : fffffffd;
1585 : 00000000;
1586 : fffffffb;
1587 : fffffff4;
1588 : 00000000;
1589 : 00000003;
1590 : fffffff2;
1591 : fffffffd;
1592 : 00000003;
1593 : fffffffd;
1594 : 00000000;
1595 : 00000008;
1596 : fffffffb;
1597 : fffffffd;
1598 : fffffffb;
1599 : 00000003;
1600 : 00000000;
1601 : 00000000;
1602 : 00000005;
1603 : 00000003;
1604 : fffffff2;
1605 : 0000000f;
1606 : fffffffd;
1607 : 00000000;
1608 : fffffff4;
1609 : fffffff4;
1610 : 00000003;
1611 : fffffffb;
1612 : fffffffb;
1613 : 00000000;
1614 : 00000005;
1615 : 00000000;
1616 : 00000003;
1617 : 0000000f;
1618 : fffffff6;
1619 : 00000005;
1620 : 00000005;
1621 : 0000000a;
1622 : fffffffb;
1623 : 00000005;
1624 : 00000014;
1625 : fffffffd;
1626 : fffffff8;
1627 : 00000005;
1628 : fffffffb;
1629 : 00000003;
1630 : fffffff6;
1631 : fffffff6;
1632 : 00000003;
1633 : 0000000a;
1634 : fffffffb;
1635 : 00000005;
1636 : ffffffed;
1637 : fffffffb;
1638 : fffffff6;
1639 : fffffff8;
1640 : fffffffd;
1641 : 00000003;
1642 : 0000000a;
1643 : 0000000f;
1644 : 00000000;
1645 : 00000008;
1646 : 0000000a;
1647 : fffffff8;
1648 : 0000000a;
1649 : 00000005;
1650 : 00000014;
1651 : fffffffb;
1652 : fffffffb;
1653 : 0000000a;
1654 : 0000000a;
1655 : 0000000a;
1656 : 0000000f;
1657 : 0000000a;
1658 : 00000000;
1659 : fffffff6;
1660 : fffffffd;
1661 : 00000000;
1662 : 00000005;
1663 : fffffffb;
1664 : 0000000a;
1665 : fffffffd;
1666 : 00000005;
1667 : fffffff1;
1668 : fffffffd;
1669 : fffffffb;
1670 : fffffffd;
1671 : 00000000;
1672 : fffffff8;
1673 : 0000000a;
1674 : 0000000a;
1675 : 00000003;
1676 : 00000005;
1677 : fffffffb;
1678 : 00000000;
1679 : fffffffb;
1680 : 00000003;
1681 : 0000000a;
1682 : 00000003;
1683 : 00000000;
1684 : 00000005;
1685 : fffffff1;
1686 : 00000003;
1687 : fffffff1;
1688 : 0000000f;
1689 : 00000000;
1690 : fffffff8;
1691 : 0000000a;
1692 : 00000008;
1693 : 0000000f;
1694 : fffffff8;
1695 : 00000003;
1696 : 0000000f;
1697 : 00000005;
1698 : 00000019;
1699 : fffffff8;
1700 : 0000000a;
1701 : 00000000;
1702 : fffffffd;
1703 : 00000000;
1704 : fffffff6;
1705 : 0000000f;
1706 : 00000005;
1707 : 00000008;
1708 : 00000005;
1709 : 00000003;
1710 : 00000003;
1711 : fffffff8;
1712 : fffffffd;
1713 : 00000005;
1714 : fffffff1;
1715 : 00000003;
1716 : fffffffb;
1717 : fffffff8;
1718 : 0000000a;
1719 : fffffffb;
1720 : fffffff1;
1721 : fffffffb;
1722 : 00000003;
1723 : 00000000;
1724 : fffffff8;
1725 : fffffffd;
1726 : fffffffd;
1727 : 00000003;
1728 : fffffff8;
1729 : fffffff8;
1730 : 0000000a;
1731 : fffffff6;
1732 : fffffff8;
1733 : fffffffd;
1734 : 00000005;
1735 : 00000000;
1736 : fffffffd;
1737 : fffffffd;
1738 : 00000003;
1739 : 00000000;
1740 : fffffffb;
1741 : 00000003;
1742 : 00000000;
1743 : fffffff4;
1744 : 00000003;
1745 : 00000003;
1746 : 00000000;
1747 : 0000000a;
1748 : 0000000f;
1749 : 00000003;
1750 : fffffffb;
1751 : fffffff6;
1752 : 0000000a;
1753 : fffffff8;
1754 : 0000000a;
1755 : fffffffd;
1756 : 00000005;
1757 : 00000005;
1758 : 0000000a;
1759 : fffffff1;
1760 : fffffffd;
1761 : 00000000;
1762 : 0000000a;
1763 : fffffff8;
1764 : fffffffb;
1765 : 00000000;
1766 : 00000005;
1767 : fffffff8;
1768 : fffffffb;
1769 : 00000000;
1770 : 00000003;
1771 : 0000000a;
1772 : 00000005;
1773 : 00000003;
1774 : 00000005;
1775 : fffffff4;
1776 : 00000005;
1777 : 0000000a;
1778 : 0000000a;
1779 : fffffffd;
1780 : 0000000f;
1781 : 0000000f;
1782 : fffffff6;
1783 : 0000000f;
1784 : 00000000;
1785 : 00000000;
1786 : 00000005;
1787 : 00000005;
1788 : 00000000;
1789 : fffffffb;
1790 : fffffffb;
1791 : 00000000;
1792 : 00000005;
1793 : 0000000f;
1794 : 00000003;
1795 : fffffff2;
1796 : 00000019;
1797 : fffffff1;
1798 : 00000005;
1799 : 0000000a;
1800 : fffffffd;
1801 : fffffff2;
1802 : fffffff6;
1803 : 00000000;
1804 : fffffff8;
1805 : 00000000;
1806 : 00000005;
1807 : 0000000a;
1808 : 00000003;
1809 : 00000000;
1810 : fffffffb;
1811 : 00000005;
1812 : fffffffb;
1813 : 00000003;
1814 : fffffffb;
1815 : 00000005;
1816 : fffffffd;
1817 : fffffffb;
1818 : 00000005;
1819 : 00000005;
1820 : fffffff8;
1821 : fffffff1;
1822 : fffffff6;
1823 : 00000000;
1824 : 00000003;
1825 : 00000000;
1826 : 00000005;
1827 : fffffff6;
1828 : fffffff6;
1829 : 0000000a;
1830 : 00000005;
1831 : fffffff6;
1832 : 00000005;
1833 : fffffff8;
1834 : fffffff2;
1835 : fffffffd;
1836 : 0000000a;
1837 : 00000005;
1838 : 00000003;
1839 : 00000003;
1840 : ffffffed;
1841 : fffffffd;
1842 : fffffffb;
1843 : 0000000f;
1844 : 00000000;
1845 : 0000000a;
1846 : 00000008;
1847 : 00000000;
1848 : 00000005;
1849 : 00000000;
1850 : 00000000;
1851 : fffffffb;
1852 : 0000000f;
1853 : fffffffb;
1854 : 0000000a;
1855 : ffffffe8;
1856 : fffffff8;
1857 : 00000003;
1858 : fffffffb;
1859 : fffffff2;
1860 : 00000000;
1861 : 00000003;
1862 : fffffff1;
1863 : fffffff8;
1864 : 00000005;
1865 : 00000014;
1866 : 00000000;
1867 : fffffffd;
1868 : fffffffb;
1869 : 00000005;
1870 : 0000000a;
1871 : fffffff8;
1872 : fffffff6;
1873 : 00000000;
1874 : 00000005;
1875 : 00000014;
1876 : fffffff8;
1877 : 00000005;
1878 : fffffffd;
1879 : ffffffed;
1880 : 00000005;
1881 : 00000005;
1882 : fffffff6;
1883 : 0000000f;
1884 : fffffffd;
1885 : fffffffb;
1886 : 0000000a;
1887 : 00000005;
1888 : 0000000a;
1889 : fffffff8;
1890 : fffffffb;
1891 : 0000000f;
1892 : fffffffb;
1893 : fffffffd;
1894 : 00000005;
1895 : ffffffe8;
1896 : 00000005;
1897 : 00000005;
1898 : 00000000;
1899 : 00000000;
1900 : 00000000;
1901 : 00000008;
1902 : fffffffb;
1903 : 00000005;
1904 : 00000005;
1905 : fffffffb;
1906 : 00000000;
1907 : fffffff1;
1908 : fffffff8;
1909 : 0000000f;
1910 : 00000000;
1911 : 0000000a;
1912 : 00000008;
1913 : 0000000a;
1914 : 0000000f;
1915 : 00000000;
1916 : 00000008;
1917 : fffffff1;
1918 : 00000005;
1919 : fffffff4;
1920 : fffffffb;
1921 : fffffffd;
1922 : 00000005;
1923 : 00000014;
1924 : 00000014;
1925 : 00000000;
1926 : 0000000f;
1927 : 00000003;
1928 : 00000003;
1929 : 00000000;
1930 : ffffffed;
1931 : 00000008;
1932 : 0000000a;
1933 : fffffff8;
1934 : 00000005;
1935 : 00000003;
1936 : fffffff8;
1937 : fffffff6;
1938 : 00000000;
1939 : 00000005;
1940 : 00000003;
1941 : 0000000a;
1942 : 00000005;
1943 : 0000000f;
1944 : fffffff2;
1945 : fffffff8;
1946 : 00000000;
1947 : fffffffd;
1948 : fffffff6;
1949 : 00000000;
1950 : fffffff6;
1951 : 0000000f;
1952 : fffffffb;
1953 : 00000005;
1954 : fffffff2;
1955 : fffffff6;
1956 : 00000005;
1957 : 0000000a;
1958 : 0000000f;
1959 : fffffffd;
1960 : 00000008;
1961 : fffffff6;
1962 : 00000000;
1963 : fffffffd;
1964 : fffffff8;
1965 : fffffffb;
1966 : 00000000;
1967 : 00000000;
1968 : 00000014;
1969 : fffffff8;
1970 : 0000000a;
1971 : fffffff8;
1972 : 00000000;
1973 : 00000003;
1974 : fffffffd;
1975 : fffffffb;
1976 : 0000000a;
1977 : 00000003;
1978 : 00000003;
1979 : fffffff8;
1980 : 00000005;
1981 : fffffffb;
1982 : fffffff8;
1983 : 00000003;
1984 : 00000005;
1985 : fffffff6;
1986 : 0000000a;
1987 : fffffffb;
1988 : fffffffb;
1989 : 00000003;
1990 : 00000000;
1991 : 00000003;
1992 : fffffffb;
1993 : 00000005;
1994 : fffffffd;
1995 : 0000000a;
1996 : fffffff8;
1997 : 00000000;
1998 : fffffffd;
1999 : 00000000;
2000 : 0000000f;
2001 : fffffffb;
2002 : fffffffb;
2003 : fffffff6;
2004 : fffffff8;
2005 : fffffff2;
2006 : fffffffb;
2007 : 00000000;
2008 : fffffffd;
2009 : fffffffb;
2010 : fffffffb;
2011 : fffffffd;
2012 : fffffff6;
2013 : 00000000;
2014 : fffffffb;
2015 : fffffff8;
2016 : 00000008;
2017 : 00000000;
2018 : 00000005;
2019 : fffffffd;
2020 : fffffff8;
2021 : 0000000a;
2022 : 00000005;
2023 : 00000000;
2024 : fffffffb;
2025 : fffffffb;
2026 : fffffffb;
2027 : 00000008;
2028 : 00000003;
2029 : fffffff2;
2030 : fffffffd;
2031 : 00000005;
2032 : 0000000a;
2033 : 00000000;
2034 : fffffffd;
2035 : fffffffb;
2036 : 0000000f;
2037 : fffffff6;
2038 : 00000005;
2039 : fffffff4;
2040 : fffffffd;
2041 : 00000000;
2042 : fffffff6;
2043 : 0000000f;
2044 : fffffff8;
2045 : 00000000;
2046 : 0000000a;
2047 : 00000000;
2048 : 00000003;
2049 : 00000000;
2050 : 00000000;
2051 : fffffff1;
2052 : fffffffb;
2053 : fffffff8;
2054 : 00000005;
2055 : fffffff6;
2056 : 00000000;
2057 : 00000005;
2058 : 00000003;
2059 : 00000005;
2060 : 00000003;
2061 : 00000003;
2062 : 0000000f;
2063 : fffffffd;
2064 : 0000000a;
2065 : fffffffb;
2066 : 00000000;
2067 : 0000000f;
2068 : fffffffb;
2069 : 00000000;
2070 : 00000000;
2071 : fffffff8;
2072 : 00000003;
2073 : fffffffd;
2074 : fffffffd;
2075 : 0000000f;
2076 : fffffff4;
2077 : fffffff6;
2078 : fffffff8;
2079 : fffffffd;
2080 : 00000000;
2081 : 00000005;
2082 : fffffff6;
2083 : 00000005;
2084 : fffffffd;
2085 : 00000003;
2086 : 00000000;
2087 : 00000003;
2088 : fffffffb;
2089 : fffffff6;
2090 : fffffffd;
2091 : 00000000;
2092 : fffffffd;
2093 : 0000000a;
2094 : 00000005;
2095 : fffffffb;
2096 : fffffffd;
2097 : fffffffb;
2098 : fffffffd;
2099 : fffffffd;
2100 : 0000000a;
2101 : 00000000;
2102 : fffffffb;
2103 : 00000003;
2104 : 00000005;
2105 : fffffffb;
2106 : 0000000a;
2107 : 00000000;
2108 : fffffffd;
2109 : fffffffb;
2110 : fffffffd;
2111 : fffffff2;
2112 : fffffff8;
2113 : fffffff8;
2114 : 00000005;
2115 : fffffff8;
2116 : 0000000a;
2117 : 0000000a;
2118 : 00000000;
2119 : 00000003;
2120 : 0000000a;
2121 : 00000008;
2122 : 00000005;
2123 : 0000000f;
2124 : 00000003;
2125 : 00000000;
2126 : fffffffb;
2127 : fffffffb;
2128 : 00000000;
2129 : 00000000;
2130 : fffffff8;
2131 : fffffffb;
2132 : 00000000;
2133 : fffffff6;
2134 : 00000000;
2135 : 00000000;
2136 : fffffffd;
2137 : 00000005;
2138 : fffffffb;
2139 : 00000000;
2140 : 00000005;
2141 : 00000003;
2142 : 00000000;
2143 : fffffff6;
2144 : 00000005;
2145 : 00000005;
2146 : 00000000;
2147 : 00000005;
2148 : fffffffd;
2149 : 00000005;
2150 : 00000003;
2151 : 00000003;
2152 : 00000000;
2153 : fffffffd;
2154 : 00000003;
2155 : 00000000;
2156 : fffffff1;
2157 : 0000000f;
2158 : 00000003;
2159 : 00000008;
2160 : fffffffb;
2161 : 0000000a;
2162 : fffffffb;
2163 : 00000000;
2164 : 00000000;
2165 : 00000003;
2166 : 00000005;
2167 : 00000005;
2168 : fffffff6;
2169 : 00000005;
2170 : 00000000;
2171 : 0000000a;
2172 : fffffff8;
2173 : 00000005;
2174 : 00000003;
2175 : 0000000f;
2176 : 00000000;
2177 : fffffffd;
2178 : 00000000;
2179 : fffffff8;
2180 : fffffffb;
2181 : fffffffb;
2182 : 00000000;
2183 : 00000009;
2184 : fffffffd;
2185 : 00000000;
2186 : 00000000;
2187 : 00000013;
2188 : fffffff2;
2189 : 00000005;
2190 : 00000005;
2191 : ffffffec;
2192 : fffffff7;
2193 : 00000005;
2194 : fffffffb;
2195 : fffffff8;
2196 : fffffff6;
2197 : 00000000;
2198 : 00000000;
2199 : 00000000;
2200 : 0000000a;
2201 : 0000000a;
2202 : 00000008;
2203 : fffffff6;
2204 : 0000000a;
2205 : fffffff8;
2206 : 00000005;
2207 : 00000000;
2208 : 00000000;
2209 : 0000000f;
2210 : 00000000;
2211 : 00000003;
2212 : 00000005;
2213 : fffffffb;
2214 : fffffff8;
2215 : 00000005;
2216 : 0000000e;
2217 : fffffffd;
2218 : fffffffb;
2219 : 00000000;
2220 : 00000000;
2221 : fffffffd;
2222 : 00000014;
2223 : 00000000;
2224 : fffffff4;
2225 : fffffff6;
2226 : 00000005;
2227 : 00000005;
2228 : fffffffd;
2229 : 00000005;
2230 : 00000000;
2231 : 00000005;
2232 : 0000000a;
2233 : 0000000a;
2234 : fffffffd;
2235 : 00000000;
2236 : 00000003;
2237 : 00000008;
2238 : fffffff6;
2239 : ffffffed;
2240 : 00000000;
2241 : 0000000e;
2242 : fffffffd;
2243 : 00000000;
2244 : 0000000a;
2245 : 0000000a;
2246 : 0000000a;
2247 : 00000000;
2248 : 00000014;
2249 : fffffff1;
2250 : 00000000;
2251 : fffffffb;
2252 : fffffffd;
2253 : fffffffd;
2254 : ffffffe8;
2255 : 00000000;
2256 : 0000000a;
2257 : 00000005;
2258 : 00000003;
2259 : 00000005;
2260 : 00000005;
2261 : fffffff6;
2262 : 0000000f;
2263 : fffffffb;
2264 : 00000000;
2265 : 00000003;
2266 : fffffffd;
2267 : 00000000;
2268 : 0000000a;
2269 : 00000005;
2270 : 00000000;
2271 : 00000005;
2272 : 00000005;
2273 : fffffffb;
2274 : fffffff6;
2275 : 00000003;
2276 : 00000005;
2277 : fffffffd;
2278 : 00000000;
2279 : 00000005;
2280 : 00000000;
2281 : fffffffd;
2282 : 00000000;
2283 : 00000000;
2284 : 00000000;
2285 : fffffff8;
2286 : 00000005;
2287 : 00000005;
2288 : fffffff6;
2289 : fffffff1;
2290 : 00000000;
2291 : 00000005;
2292 : 00000003;
2293 : 00000000;
2294 : 00000000;
2295 : 00000000;
2296 : 00000008;
2297 : 00000003;
2298 : fffffffb;
2299 : fffffffb;
2300 : 00000000;
2301 : 00000000;
2302 : 00000000;
2303 : 00000003;
2304 : 00000008;
2305 : 00000009;
2306 : fffffff6;
2307 : fffffffb;
2308 : fffffffb;
2309 : fffffff6;
2310 : 00000000;
2311 : fffffffb;
2312 : fffffffb;
2313 : 00000003;
2314 : 00000000;
2315 : 00000005;
2316 : fffffff1;
2317 : fffffffb;
2318 : fffffffb;
2319 : 00000005;
2320 : fffffff6;
2321 : 00000005;
2322 : fffffffe;
2323 : 00000005;
2324 : fffffff8;
2325 : fffffff6;
2326 : fffffffb;
2327 : fffffff9;
2328 : 0000000a;
2329 : 0000000b;
2330 : 00000005;
2331 : 00000000;
2332 : 00000005;
2333 : fffffffb;
2334 : 00000000;
2335 : 00000005;
2336 : 00000000;
2337 : fffffffb;
2338 : fffffffb;
2339 : 00000005;
2340 : 00000000;
2341 : fffffffb;
2342 : fffffffd;
2343 : 00000000;
2344 : fffffffb;
2345 : fffffffb;
2346 : 0000000f;
2347 : fffffff8;
2348 : 00000005;
2349 : fffffff1;
2350 : fffffffd;
2351 : 00000000;
2352 : 0000000a;
2353 : 00000004;
2354 : fffffffb;
2355 : fffffff1;
2356 : fffffff2;
2357 : fffffff8;
2358 : 00000000;
2359 : 00000000;
2360 : fffffffd;
2361 : 00000005;
2362 : 0000000a;
2363 : 00000005;
2364 : 00000002;
2365 : fffffffb;
2366 : fffffffd;
2367 : 00000000;
2368 : 00000000;
2369 : 00000002;
2370 : 00000000;
2371 : 0000000a;
2372 : fffffff6;
2373 : 00000005;
2374 : fffffffd;
2375 : 00000000;
2376 : 00000000;
2377 : fffffffb;
2378 : 00000000;
2379 : 00000009;
2380 : 0000000f;
2381 : fffffffb;
2382 : fffffffe;
2383 : 00000014;
2384 : ffffffed;
2385 : 00000000;
2386 : fffffffe;
2387 : 00000000;
2388 : 00000000;
2389 : 00000000;
2390 : 00000002;
2391 : fffffffe;
2392 : 0000000f;
2393 : fffffff8;
2394 : 00000005;
2395 : 0000000a;
2396 : 0000000f;
2397 : 00000000;
2398 : 00000005;
2399 : 00000005;
2400 : 00000000;
2401 : 00000005;
2402 : fffffffb;
2403 : fffffffd;
2404 : fffffffb;
2405 : 00000005;
2406 : 00000003;
2407 : fffffff2;
2408 : fffffffb;
2409 : fffffff6;
2410 : ffffffec;
2411 : 00000005;
2412 : fffffffb;
2413 : 0000000a;
2414 : 0000000f;
2415 : 0000000a;
2416 : 00000002;
2417 : 00000000;
2418 : 00000000;
2419 : 0000000a;
2420 : fffffffd;
2421 : 00000000;
2422 : 00000003;
2423 : fffffff6;
2424 : 00000005;
2425 : 00000000;
2426 : fffffff9;
2427 : 0000000a;
2428 : 00000000;
2429 : 00000002;
2430 : 00000005;
2431 : 00000005;
2432 : 00000005;
2433 : 00000000;
2434 : fffffffb;
2435 : 00000005;
2436 : fffffffb;
2437 : fffffffd;
2438 : fffffff8;
2439 : 00000000;
2440 : fffffff1;
2441 : fffffffb;
2442 : fffffffd;
2443 : 00000005;
2444 : fffffffb;
2445 : fffffff4;
2446 : 00000005;
2447 : 00000005;
2448 : 0000000a;
2449 : fffffff8;
2450 : 00000000;
2451 : fffffffb;
2452 : 0000000a;
2453 : 00000000;
2454 : 0000000a;
2455 : 0000000f;
2456 : fffffffb;
2457 : fffffff1;
2458 : 0000000a;
2459 : 00000005;
2460 : 0000000a;
2461 : 0000000a;
2462 : 0000000e;
2463 : 00000000;
2464 : fffffffb;
2465 : ffffffed;
2466 : 0000000f;
2467 : fffffff2;
2468 : 0000000b;
2469 : 00000005;
2470 : 0000000a;
2471 : 00000000;
2472 : fffffffb;
2473 : 00000005;
2474 : fffffffb;
2475 : 00000000;
2476 : 00000005;
2477 : fffffffd;
2478 : 00000008;
2479 : 0000000a;
2480 : fffffff1;
2481 : 00000005;
2482 : 0000000f;
2483 : 00000000;
2484 : 00000000;
2485 : fffffff9;
2486 : fffffff6;
2487 : 00000000;
2488 : 00000003;
2489 : 00000005;
2490 : 00000008;
2491 : 00000008;
2492 : 0000000a;
2493 : 00000000;
2494 : 00000000;
2495 : fffffffb;
2496 : fffffffb;
2497 : 00000000;
2498 : fffffffb;
2499 : 00000005;
2500 : 0000000a;
2501 : fffffffb;
2502 : 00000005;
2503 : fffffffb;
2504 : 00000000;
2505 : fffffffd;
2506 : 0000000f;
2507 : fffffff8;
2508 : fffffff1;
2509 : 0000000b;
2510 : 00000000;
2511 : 00000005;
2512 : 00000000;
2513 : 0000000a;
2514 : 0000000f;
2515 : 0000000a;
2516 : 00000003;
2517 : fffffffb;
2518 : fffffff8;
2519 : fffffff6;
2520 : 00000002;
2521 : fffffffd;
2522 : fffffffd;
2523 : 00000005;
2524 : 00000003;
2525 : 00000000;
2526 : 00000005;
2527 : 0000000a;
2528 : 0000000a;
2529 : 00000003;
2530 : 00000005;
2531 : 00000005;
2532 : 00000005;
2533 : 00000009;
2534 : fffffffd;
2535 : 0000000a;
2536 : fffffff8;
2537 : 00000004;
2538 : 00000005;
2539 : fffffff7;
2540 : fffffff6;
2541 : 00000005;
2542 : fffffffd;
2543 : 00000000;
2544 : 00000000;
2545 : 00000005;
2546 : fffffff3;
2547 : 00000005;
2548 : 0000000f;
2549 : 0000000a;
2550 : 00000000;
2551 : 00000000;
2552 : fffffff6;
2553 : fffffff8;
2554 : 0000000a;
2555 : 00000004;
2556 : 00000000;
2557 : fffffff6;
2558 : 00000009;
2559 : 00000005;
2560 : fffffffd;
2561 : fffffffb;
2562 : 00000000;
2563 : 0000000a;
2564 : fffffffb;
2565 : fffffffb;
2566 : 00000005;
2567 : fffffff9;
2568 : fffffff8;
2569 : fffffff6;
2570 : fffffff1;
2571 : 00000013;
2572 : 00000000;
2573 : 0000000a;
2574 : 00000005;
2575 : 00000005;
2576 : 0000000a;
2577 : fffffff6;
2578 : fffffffb;
2579 : fffffffb;
2580 : 00000008;
2581 : 0000000a;
2582 : fffffff1;
2583 : fffffff6;
2584 : fffffffb;
2585 : 00000000;
2586 : fffffff6;
2587 : 00000005;
2588 : 00000005;
2589 : 00000005;
2590 : fffffffb;
2591 : fffffffb;
2592 : 00000000;
2593 : 00000000;
2594 : 0000000f;
2595 : 00000005;
2596 : fffffffb;
2597 : 00000005;
2598 : 00000005;
2599 : fffffffc;
2600 : 00000005;
2601 : 00000002;
2602 : 00000000;
2603 : fffffffb;
2604 : 0000000a;
2605 : 0000000f;
2606 : 0000000a;
2607 : fffffffb;
2608 : 00000000;
2609 : 0000000a;
2610 : 0000000a;
2611 : fffffffd;
2612 : 00000000;
2613 : 00000005;
2614 : fffffffb;
2615 : fffffff9;
2616 : 00000000;
2617 : 00000000;
2618 : 00000005;
2619 : fffffffd;
2620 : 00000000;
2621 : 0000000a;
2622 : fffffff8;
2623 : fffffff6;
2624 : fffffff8;
2625 : 00000000;
2626 : fffffffd;
2627 : 00000005;
2628 : 00000000;
2629 : 00000005;
2630 : fffffffd;
2631 : 00000000;
2632 : 0000000a;
2633 : 0000000f;
2634 : fffffffb;
2635 : fffffff8;
2636 : 0000000a;
2637 : fffffff6;
2638 : fffffff1;
2639 : 00000000;
2640 : 0000000a;
2641 : fffffffb;
2642 : fffffff8;
2643 : fffffff8;
2644 : fffffff6;
2645 : 00000000;
2646 : 00000005;
2647 : fffffff6;
2648 : fffffff1;
2649 : fffffffb;
2650 : 00000008;
2651 : 00000005;
2652 : 00000000;
2653 : fffffffb;
2654 : 00000005;
2655 : fffffff8;
2656 : fffffff1;
2657 : ffffffed;
2658 : 00000005;
2659 : 0000000a;
2660 : 00000000;
2661 : 00000000;
2662 : fffffffd;
2663 : fffffffb;
2664 : fffffff6;
2665 : 00000000;
2666 : fffffffb;
2667 : 00000000;
2668 : fffffffd;
2669 : 0000000a;
2670 : fffffff9;
2671 : fffffffb;
2672 : 00000005;
2673 : 0000000a;
2674 : 00000005;
2675 : 0000000f;
2676 : 00000008;
2677 : 00000005;
2678 : 0000000a;
2679 : fffffffb;
2680 : fffffff1;
2681 : fffffff7;
2682 : 00000000;
2683 : 0000000a;
2684 : fffffff6;
2685 : fffffffb;
2686 : 00000000;
2687 : 00000000;
2688 : fffffffb;
2689 : 00000014;
2690 : 00000014;
2691 : 00000008;
2692 : 00000005;
2693 : fffffffb;
2694 : 0000000f;
2695 : 0000000f;
2696 : 00000000;
2697 : 00000003;
2698 : 0000000a;
2699 : 0000000a;
2700 : 0000000f;
2701 : 0000000a;
2702 : 00000000;
2703 : fffffff6;
2704 : 00000005;
2705 : 00000005;
2706 : 00000002;
2707 : fffffff1;
2708 : 0000000a;
2709 : 00000000;
2710 : 00000000;
2711 : 00000000;
2712 : fffffff1;
2713 : 00000005;
2714 : 00000000;
2715 : 00000000;
2716 : 00000005;
2717 : fffffffb;
2718 : 00000000;
2719 : 00000000;
2720 : 00000005;
2721 : fffffff8;
2722 : 0000000a;
2723 : 00000005;
2724 : 00000005;
2725 : fffffff2;
2726 : fffffff4;
2727 : 0000000a;
2728 : 0000000f;
2729 : 00000000;
2730 : 00000000;
2731 : fffffffb;
2732 : ffffffff;
2733 : 00000005;
2734 : 00000003;
2735 : 00000005;
2736 : fffffff6;
2737 : 00000005;
2738 : fffffffb;
2739 : fffffff8;
2740 : fffffff6;
2741 : 00000008;
2742 : 00000005;
2743 : fffffff6;
2744 : fffffff1;
2745 : 00000014;
2746 : 00000005;
2747 : 00000000;
2748 : fffffffb;
2749 : 00000000;
2750 : 00000005;
2751 : fffffffb;
2752 : fffffffd;
2753 : 00000000;
2754 : 00000005;
2755 : fffffffb;
2756 : fffffff1;
2757 : 0000000e;
2758 : 00000008;
2759 : 0000000f;
2760 : 00000000;
2761 : 00000005;
2762 : 00000000;
2763 : fffffff8;
2764 : 00000000;
2765 : fffffff1;
2766 : 00000005;
2767 : 00000005;
2768 : fffffffd;
2769 : 00000000;
2770 : 00000000;
2771 : 00000005;
2772 : 00000005;
2773 : ffffffec;
2774 : 0000000a;
2775 : fffffffb;
2776 : 00000000;
2777 : 00000005;
2778 : 00000000;
2779 : 0000000b;
2780 : fffffff8;
2781 : fffffffb;
2782 : 00000000;
2783 : 0000000f;
2784 : 00000003;
2785 : 00000008;
2786 : 00000005;
2787 : 00000005;
2788 : fffffff8;
2789 : 00000005;
2790 : 00000003;
2791 : fffffffc;
2792 : fffffff6;
2793 : fffffffb;
2794 : 00000002;
2795 : 00000005;
2796 : 00000005;
2797 : 00000005;
2798 : 00000005;
2799 : fffffff8;
2800 : 00000005;
2801 : fffffff4;
2802 : fffffff6;
2803 : 00000005;
2804 : 00000000;
2805 : fffffffb;
2806 : 00000003;
2807 : fffffffd;
2808 : 00000005;
2809 : 00000000;
2810 : fffffffd;
2811 : 00000008;
2812 : 00000008;
2813 : 00000005;
2814 : fffffff9;
2815 : 00000005;
2816 : fffffffb;
2817 : fffffff1;
2818 : fffffff1;
2819 : 00000002;
2820 : 0000000e;
2821 : 00000000;
2822 : 00000005;
2823 : 00000005;
2824 : fffffff7;
2825 : 00000002;
2826 : fffffff6;
2827 : 00000000;
2828 : fffffff6;
2829 : 00000005;
2830 : fffffff6;
2831 : 00000000;
2832 : 00000005;
2833 : fffffff8;
2834 : fffffffb;
2835 : 00000005;
2836 : 0000000f;
2837 : fffffff6;
2838 : 00000005;
2839 : 0000000f;
2840 : 00000003;
2841 : 00000005;
2842 : 00000005;
2843 : fffffff6;
2844 : 00000005;
2845 : 00000000;
2846 : 0000000a;
2847 : 00000005;
2848 : 00000005;
2849 : 00000003;
2850 : 00000000;
2851 : 00000002;
2852 : 0000000a;
2853 : 00000000;
2854 : 00000005;
2855 : 00000005;
2856 : fffffffb;
2857 : 00000000;
2858 : fffffff6;
2859 : 00000000;
2860 : fffffffb;
2861 : fffffff1;
2862 : fffffff8;
2863 : 00000000;
2864 : fffffff7;
2865 : 0000000f;
2866 : fffffff1;
2867 : 00000005;
2868 : fffffffd;
2869 : 00000005;
2870 : fffffffb;
2871 : 00000005;
2872 : fffffffb;
2873 : 00000000;
2874 : 0000000f;
2875 : fffffff9;
2876 : 00000005;
2877 : 0000000a;
2878 : 0000000a;
2879 : 00000005;
2880 : 00000005;
2881 : 00000005;
2882 : 00000002;
2883 : 00000000;
2884 : 00000005;
2885 : 00000005;
2886 : 0000000a;
2887 : fffffff7;
2888 : fffffff8;
2889 : fffffff6;
2890 : ffffffef;
2891 : fffffff2;
2892 : fffffff6;
2893 : fffffffb;
2894 : 00000005;
2895 : ffffffef;
2896 : fffffffd;
2897 : 00000005;
2898 : fffffff1;
2899 : fffffff6;
2900 : 0000000a;
2901 : 0000000a;
2902 : fffffffb;
2903 : fffffff6;
2904 : 0000000f;
2905 : 00000000;
2906 : fffffff6;
2907 : 00000008;
2908 : fffffffd;
2909 : 00000003;
2910 : 00000005;
2911 : fffffff8;
2912 : 0000000a;
2913 : 00000008;
2914 : 00000005;
2915 : fffffffd;
2916 : fffffffb;
2917 : fffffffb;
2918 : 00000004;
2919 : 00000005;
2920 : 0000000a;
2921 : fffffff8;
2922 : fffffff1;
2923 : fffffffb;
2924 : 00000014;
2925 : 00000000;
2926 : fffffff8;
2927 : 00000019;
2928 : fffffff6;
2929 : 0000000a;
2930 : fffffffd;
2931 : fffffff6;
2932 : fffffffb;
2933 : 0000000a;
2934 : 00000000;
2935 : 00000005;
2936 : 00000000;
2937 : 0000000f;
2938 : 00000000;
2939 : fffffff9;
2940 : fffffff4;
2941 : fffffff6;
2942 : fffffff6;
2943 : fffffffb;
2944 : 0000000a;
2945 : 00000005;
2946 : 00000000;
2947 : fffffff1;
2948 : 00000005;
2949 : fffffff2;
2950 : 0000000a;
2951 : 00000000;
2952 : 00000003;
2953 : 0000000a;
2954 : 0000000a;
2955 : 00000005;
2956 : 00000005;
2957 : fffffff1;
2958 : fffffffb;
2959 : 0000000a;
2960 : fffffff6;
2961 : 00000005;
2962 : fffffffd;
2963 : 00000000;
2964 : 00000000;
2965 : 00000005;
2966 : fffffffd;
2967 : fffffffb;
2968 : fffffff2;
2969 : fffffff6;
2970 : 0000000f;
2971 : fffffff6;
2972 : 00000005;
2973 : 00000005;
2974 : fffffffb;
2975 : fffffff8;
2976 : 00000003;
2977 : 00000003;
2978 : 0000000f;
2979 : fffffffd;
2980 : fffffffd;
2981 : 00000003;
2982 : fffffff8;
2983 : 00000000;
2984 : 0000000a;
2985 : 00000000;
2986 : 00000000;
2987 : fffffffb;
2988 : 00000005;
2989 : 0000000a;
2990 : 00000000;
2991 : 00000000;
2992 : fffffffb;
2993 : 00000003;
2994 : 00000000;
2995 : 0000000f;
2996 : 00000000;
2997 : 0000000a;
2998 : fffffffb;
2999 : 00000000;
3000 : 00000008;
3001 : fffffff6;
3002 : 00000000;
3003 : 0000000f;
3004 : fffffff1;
3005 : fffffff6;
3006 : 00000000;
3007 : 00000005;
3008 : 00000005;
3009 : fffffffb;
3010 : 00000005;
3011 : 0000000a;
3012 : fffffff7;
3013 : 00000005;
3014 : fffffffb;
3015 : 0000000a;
3016 : 00000000;
3017 : 0000000f;
3018 : fffffffb;
3019 : fffffffb;
3020 : 00000000;
3021 : 0000000f;
3022 : 00000005;
3023 : fffffff6;
3024 : 00000005;
3025 : 00000005;
3026 : 00000005;
3027 : 00000003;
3028 : fffffffb;
3029 : 00000005;
3030 : 00000003;
3031 : fffffff1;
3032 : fffffffd;
3033 : fffffffb;
3034 : 00000000;
3035 : 00000000;
3036 : 00000005;
3037 : 00000000;
3038 : 00000005;
3039 : 00000000;
3040 : fffffff2;
3041 : 0000000a;
3042 : 00000000;
3043 : 0000000e;
3044 : 0000000f;
3045 : fffffff6;
3046 : fffffffb;
3047 : 00000000;
3048 : 00000000;
3049 : fffffff6;
3050 : 0000000a;
3051 : fffffffb;
3052 : fffffffb;
3053 : 0000000a;
3054 : 00000000;
3055 : fffffffd;
3056 : 00000005;
3057 : 00000005;
3058 : 00000005;
3059 : 0000000a;
3060 : 00000000;
3061 : fffffff8;
3062 : fffffffb;
3063 : fffffff6;
3064 : 00000005;
3065 : 00000005;
3066 : 00000000;
3067 : 00000000;
3068 : 00000003;
3069 : 00000000;
3070 : 00000000;
3071 : 0000000a;
3072 : fffffffd;
3073 : fffffffd;
3074 : fffffffb;
3075 : 0000000a;
3076 : 0000000a;
3077 : 0000000a;
3078 : 00000005;
3079 : 00000003;
3080 : 00000000;
3081 : fffffffb;
3082 : 0000000a;
3083 : fffffffb;
3084 : 00000005;
3085 : 00000000;
3086 : 00000005;
3087 : 00000005;
3088 : 00000005;
3089 : 00000014;
3090 : 00000008;
3091 : fffffffd;
3092 : 00000000;
3093 : fffffff8;
3094 : 00000000;
3095 : 00000000;
3096 : 00000008;
3097 : 00000003;
3098 : 00000005;
3099 : fffffffb;
3100 : 00000005;
3101 : 00000005;
3102 : 00000008;
3103 : 00000003;
3104 : fffffff8;
3105 : 00000005;
3106 : 00000003;
3107 : 00000005;
3108 : 00000000;
3109 : 00000005;
3110 : 00000008;
3111 : fffffffb;
3112 : 00000005;
3113 : fffffff8;
3114 : 0000000f;
3115 : 00000008;
3116 : 0000000f;
3117 : fffffffb;
3118 : 00000008;
3119 : 00000003;
3120 : ffffffed;
3121 : fffffffd;
3122 : 00000000;
3123 : 00000005;
3124 : 0000000f;
3125 : 00000005;
3126 : 0000000a;
3127 : 00000000;
3128 : 0000000a;
3129 : 00000005;
3130 : fffffff1;
3131 : 00000005;
3132 : 0000000a;
3133 : 0000000a;
3134 : fffffffb;
3135 : 00000000;
3136 : 0000000a;
3137 : 00000008;
3138 : fffffffd;
3139 : fffffffb;
3140 : 00000005;
3141 : fffffffb;
3142 : 00000005;
3143 : fffffffb;
3144 : fffffffb;
3145 : 0000000f;
3146 : 00000003;
3147 : fffffffb;
3148 : 0000000a;
3149 : 00000008;
3150 : 00000005;
3151 : fffffff4;
3152 : 0000000a;
3153 : 00000005;
3154 : 0000000f;
3155 : 00000003;
3156 : 0000000f;
3157 : ffffffe8;
3158 : 00000000;
3159 : 00000005;
3160 : 00000000;
3161 : 0000000a;
3162 : 0000000a;
3163 : 00000000;
3164 : fffffff9;
3165 : fffffffd;
3166 : 0000000a;
3167 : 0000000a;
3168 : fffffffd;
3169 : 0000000f;
3170 : 00000005;
3171 : fffffffe;
3172 : 00000003;
3173 : fffffff8;
3174 : 00000005;
3175 : 00000000;
3176 : 00000003;
3177 : 00000005;
3178 : 00000000;
3179 : 0000000a;
3180 : 00000000;
3181 : 00000003;
3182 : ffffffed;
3183 : 00000000;
3184 : 00000013;
3185 : 0000000a;
3186 : 0000000a;
3187 : fffffff1;
3188 : 00000005;
3189 : 0000000a;
3190 : 00000005;
3191 : fffffffd;
3192 : fffffffd;
3193 : 00000005;
3194 : 00000000;
3195 : 0000000a;
3196 : 0000000f;
3197 : fffffff8;
3198 : 00000014;
3199 : fffffffd;
3200 : fffffffb;
3201 : fffffff6;
3202 : fffffff8;
3203 : 00000000;
3204 : fffffff1;
3205 : fffffffb;
3206 : 00000000;
3207 : fffffffb;
3208 : 00000008;
3209 : fffffff8;
3210 : 00000005;
3211 : 0000000a;
3212 : 00000005;
3213 : 00000000;
3214 : 00000003;
3215 : fffffff6;
3216 : 00000000;
3217 : fffffff8;
3218 : 00000000;
3219 : 00000000;
3220 : 00000003;
3221 : 0000000a;
3222 : fffffff6;
3223 : fffffffd;
3224 : 00000000;
3225 : 0000000f;
3226 : 00000008;
3227 : fffffffb;
3228 : 00000000;
3229 : fffffff1;
3230 : 0000000a;
3231 : 00000002;
3232 : 00000000;
3233 : fffffffb;
3234 : 0000000a;
3235 : 0000000a;
3236 : 00000000;
3237 : 00000000;
3238 : fffffffd;
3239 : 0000000f;
3240 : 00000003;
3241 : fffffff7;
3242 : 00000005;
3243 : 00000005;
3244 : fffffff2;
3245 : 00000000;
3246 : 00000003;
3247 : 00000014;
3248 : fffffffb;
3249 : fffffffb;
3250 : 00000000;
3251 : fffffffd;
3252 : fffffff6;
3253 : ffffffed;
3254 : fffffffb;
3255 : 00000000;
3256 : 00000005;
3257 : fffffffb;
3258 : 00000005;
3259 : 00000005;
3260 : fffffff6;
3261 : 00000005;
3262 : 00000005;
3263 : fffffffb;
3264 : 00000000;
3265 : 00000003;
3266 : 00000000;
3267 : 00000005;
3268 : 0000000f;
3269 : fffffffd;
3270 : 00000005;
3271 : 00000000;
3272 : fffffffd;
3273 : fffffffd;
3274 : fffffff8;
3275 : 0000000f;
3276 : 00000005;
3277 : fffffff6;
3278 : 00000003;
3279 : fffffffe;
3280 : 00000003;
3281 : fffffff8;
3282 : fffffffb;
3283 : fffffffd;
3284 : 0000000f;
3285 : 00000005;
3286 : 00000000;
3287 : fffffff1;
3288 : fffffffb;
3289 : 00000005;
3290 : fffffffd;
3291 : fffffff4;
3292 : fffffff1;
3293 : 0000000f;
3294 : fffffffd;
3295 : fffffff8;
3296 : 00000000;
3297 : 00000005;
3298 : fffffff8;
3299 : 0000000a;
3300 : 00000000;
3301 : 0000000a;
3302 : 00000000;
3303 : 00000000;
3304 : fffffffb;
3305 : 00000000;
3306 : fffffff1;
3307 : fffffffd;
3308 : 0000000f;
3309 : 00000000;
3310 : 00000005;
3311 : 00000000;
3312 : fffffff8;
3313 : fffffffb;
3314 : 00000005;
3315 : 00000005;
3316 : 00000000;
3317 : 00000005;
3318 : 00000000;
3319 : 00000014;
3320 : fffffffb;
3321 : 00000000;
3322 : 00000005;
3323 : 00000005;
3324 : 00000000;
3325 : fffffffb;
3326 : fffffffb;
3327 : 00000005;
3328 : 0000000a;
3329 : fffffffb;
3330 : 00000000;
3331 : fffffffd;
3332 : 00000019;
3333 : 00000000;
3334 : 00000005;
3335 : fffffffd;
3336 : 00000005;
3337 : 0000000a;
3338 : 00000005;
3339 : 00000000;
3340 : 0000000a;
3341 : 00000000;
3342 : fffffff6;
3343 : 00000003;
3344 : 00000005;
3345 : 00000003;
3346 : fffffffb;
3347 : 00000000;
3348 : fffffff8;
3349 : 00000005;
3350 : fffffffd;
3351 : fffffffd;
3352 : 00000005;
3353 : 00000000;
3354 : 00000000;
3355 : 00000005;
3356 : 00000005;
3357 : 00000005;
3358 : fffffffd;
3359 : fffffff6;
3360 : 00000000;
3361 : 0000000a;
3362 : 00000005;
3363 : fffffffd;
3364 : 00000000;
3365 : 0000000a;
3366 : fffffffb;
3367 : 00000008;
3368 : fffffffd;
3369 : fffffff8;
3370 : 0000000a;
3371 : fffffffb;
3372 : 00000005;
3373 : 00000000;
3374 : 0000000a;
3375 : fffffffd;
3376 : 00000008;
3377 : 00000000;
3378 : fffffffd;
3379 : 00000000;
3380 : 00000000;
3381 : fffffffd;
3382 : fffffffd;
3383 : 0000000a;
3384 : 00000005;
3385 : fffffffb;
3386 : 00000003;
3387 : fffffff8;
3388 : fffffff2;
3389 : 0000000f;
3390 : 00000005;
3391 : 00000008;
3392 : fffffffd;
3393 : 00000003;
3394 : fffffffd;
3395 : fffffff1;
3396 : 00000000;
3397 : 00000003;
3398 : fffffff8;
3399 : fffffffd;
3400 : fffffff6;
3401 : 0000000a;
3402 : 00000005;
3403 : 0000000a;
3404 : 00000000;
3405 : 0000000a;
3406 : fffffffd;
3407 : 00000005;
3408 : fffffffb;
3409 : 00000005;
3410 : 00000005;
3411 : 00000005;
3412 : fffffffb;
3413 : fffffffd;
3414 : fffffff8;
3415 : 00000000;
3416 : fffffff6;
3417 : 00000003;
3418 : fffffff8;
3419 : fffffffb;
3420 : 00000000;
3421 : 00000005;
3422 : 0000000f;
3423 : 0000000a;
3424 : 0000000a;
3425 : fffffffb;
3426 : 00000000;
3427 : 0000000f;
3428 : 00000019;
3429 : fffffff6;
3430 : 00000000;
3431 : fffffffd;
3432 : fffffff6;
3433 : 00000005;
3434 : 00000003;
3435 : 0000000a;
3436 : 00000000;
3437 : 00000003;
3438 : 0000000f;
3439 : 00000000;
3440 : 00000000;
3441 : 00000000;
3442 : 00000003;
3443 : 0000000f;
3444 : fffffffb;
3445 : 00000005;
3446 : 00000005;
3447 : 00000000;
3448 : fffffff6;
3449 : fffffff6;
3450 : 0000000a;
3451 : 00000003;
3452 : fffffffb;
3453 : 00000005;
3454 : 0000000a;
3455 : 00000000;
3456 : 0000000a;
3457 : fffffff8;
3458 : 0000000f;
3459 : fffffffb;
3460 : fffffff2;
3461 : 0000000a;
3462 : 00000000;
3463 : 00000000;
3464 : 00000003;
3465 : fffffffb;
3466 : 00000005;
3467 : 0000000f;
3468 : 00000005;
3469 : 0000000a;
3470 : 00000008;
3471 : fffffffd;
3472 : fffffff6;
3473 : 00000005;
3474 : 00000000;
3475 : fffffff1;
3476 : fffffffb;
3477 : 00000005;
3478 : 0000000a;
3479 : 0000000a;
3480 : fffffffb;
3481 : 0000000a;
3482 : fffffffb;
3483 : 00000000;
3484 : fffffffb;
3485 : fffffffb;
3486 : fffffffb;
3487 : fffffff6;
3488 : 00000005;
3489 : 00000003;
3490 : 00000008;
3491 : 00000003;
3492 : 0000000a;
3493 : 00000005;
3494 : fffffff6;
3495 : 00000000;
3496 : 00000000;
3497 : 0000000a;
3498 : 0000000a;
3499 : 00000000;
3500 : 00000005;
3501 : 0000000a;
3502 : 0000000f;
3503 : fffffff2;
3504 : 00000005;
3505 : fffffffb;
3506 : fffffff8;
3507 : fffffffb;
3508 : 0000000a;
3509 : fffffff8;
3510 : fffffff1;
3511 : fffffffb;
3512 : fffffffb;
3513 : ffffffed;
3514 : fffffffd;
3515 : fffffffb;
3516 : fffffffd;
3517 : 00000005;
3518 : fffffffb;
3519 : fffffff8;
3520 : fffffff6;
3521 : 00000003;
3522 : 00000014;
3523 : 0000000f;
3524 : 00000000;
3525 : 00000000;
3526 : fffffff8;
3527 : fffffffd;
3528 : fffffffd;
3529 : fffffff8;
3530 : fffffffd;
3531 : fffffff1;
3532 : 0000000a;
3533 : fffffffb;
3534 : 00000003;
3535 : 00000005;
3536 : fffffff6;
3537 : 00000005;
3538 : 00000000;
3539 : 0000000a;
3540 : fffffff2;
3541 : fffffff6;
3542 : 0000000a;
3543 : 00000000;
3544 : 0000000f;
3545 : 00000005;
3546 : 00000000;
3547 : 0000000a;
3548 : 00000005;
3549 : 0000000f;
3550 : fffffff8;
3551 : 00000000;
3552 : fffffff6;
3553 : 00000005;
3554 : fffffff6;
3555 : 00000014;
3556 : 00000005;
3557 : 0000000a;
3558 : 0000000a;
3559 : 0000000a;
3560 : fffffffd;
3561 : 00000003;
3562 : fffffffd;
3563 : 0000000a;
3564 : fffffffb;
3565 : 00000000;
3566 : fffffffd;
3567 : fffffffb;
3568 : 00000003;
3569 : fffffffd;
3570 : 0000000a;
3571 : 00000014;
3572 : fffffffd;
3573 : 0000000a;
3574 : 00000000;
3575 : fffffffd;
3576 : 0000000a;
3577 : fffffffd;
3578 : 0000000a;
3579 : 00000003;
3580 : 00000005;
3581 : 00000003;
3582 : 00000003;
3583 : 0000000a;
3584 : fffffff6;
3585 : fffffffb;
3586 : fffffffb;
3587 : 00000000;
3588 : 00000005;
3589 : 00000005;
3590 : 0000000a;
3591 : 0000000a;
3592 : 00000005;
3593 : 0000000f;
3594 : 00000005;
3595 : fffffff6;
3596 : fffffff8;
3597 : fffffff1;
3598 : fffffff8;
3599 : 00000003;
3600 : 00000005;
3601 : fffffff8;
3602 : 00000005;
3603 : 00000005;
3604 : fffffff4;
3605 : 00000005;
3606 : 00000005;
3607 : 0000000f;
3608 : fffffff6;
3609 : fffffffd;
3610 : 00000005;
3611 : 00000000;
3612 : 00000000;
3613 : 00000008;
3614 : fffffffd;
3615 : fffffffb;
3616 : 00000003;
3617 : 00000000;
3618 : 0000000a;
3619 : 0000000f;
3620 : 00000000;
3621 : fffffff2;
3622 : ffffffed;
3623 : 00000000;
3624 : fffffffb;
3625 : fffffff8;
3626 : fffffffb;
3627 : fffffff2;
3628 : 0000000a;
3629 : 0000000f;
3630 : 00000005;
3631 : 00000000;
3632 : 00000019;
3633 : fffffffb;
3634 : fffffffb;
3635 : 00000003;
3636 : 0000000f;
3637 : 0000000f;
3638 : 0000000f;
3639 : 00000008;
3640 : 00000014;
3641 : fffffffd;
3642 : 00000005;
3643 : fffffffb;
3644 : fffffffd;
3645 : fffffffb;
3646 : 00000003;
3647 : fffffff2;
3648 : 00000000;
3649 : fffffff8;
3650 : fffffff8;
3651 : fffffffb;
3652 : 00000000;
3653 : fffffff8;
3654 : 00000000;
3655 : fffffffb;
3656 : 0000000f;
3657 : fffffff8;
3658 : 00000000;
3659 : 00000003;
3660 : 0000000a;
3661 : 00000000;
3662 : fffffffb;
3663 : 0000000a;
3664 : fffffffb;
3665 : 00000000;
3666 : fffffffb;
3667 : 00000003;
3668 : 0000000a;
3669 : 00000005;
3670 : 00000000;
3671 : fffffff6;
3672 : 00000005;
3673 : 00000000;
3674 : 0000000a;
3675 : fffffff6;
3676 : 0000000f;
3677 : 00000003;
3678 : 00000000;
3679 : fffffffd;
3680 : 00000005;
3681 : fffffff8;
3682 : 0000000a;
3683 : fffffffb;
3684 : fffffffb;
3685 : 00000005;
3686 : 00000003;
3687 : 0000000a;
3688 : 0000000a;
3689 : fffffffb;
3690 : 00000005;
3691 : fffffffd;
3692 : 00000005;
3693 : 0000000a;
3694 : fffffff8;
3695 : 00000000;
3696 : fffffff6;
3697 : fffffffd;
3698 : 00000003;
3699 : fffffff2;
3700 : 00000005;
3701 : 0000000a;
3702 : fffffffb;
3703 : 00000005;
3704 : fffffffb;
3705 : 0000000f;
3706 : 00000003;
3707 : 00000005;
3708 : 00000000;
3709 : 00000003;
3710 : fffffff8;
3711 : 0000000f;
3712 : 0000000a;
3713 : fffffff6;
3714 : 00000005;
3715 : fffffff8;
3716 : fffffff8;
3717 : 00000008;
3718 : 0000000a;
3719 : 0000000f;
3720 : fffffffb;
3721 : 0000000a;
3722 : 0000000a;
3723 : 00000014;
3724 : fffffffb;
3725 : 00000000;
3726 : 00000000;
3727 : 00000000;
3728 : 0000000f;
3729 : 0000000a;
3730 : 0000000a;
3731 : 00000003;
3732 : fffffffd;
3733 : fffffffb;
3734 : 00000000;
3735 : 00000005;
3736 : fffffff6;
3737 : 00000003;
3738 : fffffff6;
3739 : fffffffd;
3740 : fffffff6;
3741 : 00000014;
3742 : 0000000a;
3743 : 00000000;
3744 : fffffffd;
3745 : 0000000a;
3746 : 00000005;
3747 : fffffffb;
3748 : fffffff8;
3749 : 0000000a;
3750 : 00000005;
3751 : 00000005;
3752 : fffffff1;
3753 : 0000000a;
3754 : fffffffb;
3755 : 00000011;
3756 : fffffffb;
3757 : 00000000;
3758 : fffffffd;
3759 : 00000005;
3760 : fffffffd;
3761 : 0000000a;
3762 : fffffffd;
3763 : 00000005;
3764 : 00000003;
3765 : fffffff8;
3766 : 0000000f;
3767 : fffffff6;
3768 : 00000003;
3769 : 00000003;
3770 : fffffff4;
3771 : 00000005;
3772 : 00000005;
3773 : fffffffd;
3774 : fffffff8;
3775 : fffffffd;
3776 : 00000005;
3777 : ffffffed;
3778 : fffffff8;
3779 : 0000000a;
3780 : 00000000;
3781 : 00000005;
3782 : 00000003;
3783 : 00000000;
3784 : fffffffb;
3785 : 00000005;
3786 : fffffff8;
3787 : fffffff6;
3788 : 00000003;
3789 : 00000000;
3790 : 00000005;
3791 : 00000000;
3792 : 0000000a;
3793 : 00000000;
3794 : 00000005;
3795 : fffffffb;
3796 : fffffffb;
3797 : 0000000a;
3798 : 00000005;
3799 : 00000003;
3800 : fffffff6;
3801 : fffffff2;
3802 : 00000000;
3803 : ffffffed;
3804 : fffffffd;
3805 : 0000000a;
3806 : fffffff8;
3807 : fffffff6;
3808 : 00000005;
3809 : fffffff2;
3810 : fffffffb;
3811 : 0000000f;
3812 : 00000008;
3813 : 00000005;
3814 : fffffff2;
3815 : fffffffd;
3816 : fffffff1;
3817 : 0000000a;
3818 : fffffffb;
3819 : fffffff8;
3820 : 0000000f;
3821 : 00000000;
3822 : 00000005;
3823 : fffffff8;
3824 : 00000000;
3825 : 00000000;
3826 : fffffffb;
3827 : 00000003;
3828 : fffffff6;
3829 : 00000005;
3830 : 00000003;
3831 : fffffff2;
3832 : 00000003;
3833 : 00000000;
3834 : 00000005;
3835 : 00000005;
3836 : 0000000f;
3837 : 00000005;
3838 : fffffffb;
3839 : fffffff8;
3840 : fffffff6;
3841 : 00000000;
3842 : 00000005;
3843 : 00000000;
3844 : 0000000a;
3845 : fffffff1;
3846 : fffffffd;
3847 : fffffff8;
3848 : fffffffb;
3849 : 00000005;
3850 : fffffffb;
3851 : 00000005;
3852 : fffffff6;
3853 : 0000000a;
3854 : fffffffb;
3855 : 0000000f;
3856 : fffffff6;
3857 : fffffffd;
3858 : 0000000a;
3859 : fffffffd;
3860 : 0000000a;
3861 : 00000003;
3862 : fffffffb;
3863 : fffffff6;
3864 : 0000000f;
3865 : fffffffb;
3866 : 0000000a;
3867 : 00000000;
3868 : fffffff6;
3869 : 0000000a;
3870 : 00000000;
3871 : 00000000;
3872 : fffffff8;
3873 : fffffffd;
3874 : 00000005;
3875 : 00000000;
3876 : 00000000;
3877 : fffffffb;
3878 : 0000000f;
3879 : fffffffd;
3880 : fffffffb;
3881 : fffffffb;
3882 : fffffffd;
3883 : fffffff8;
3884 : 00000005;
3885 : fffffffb;
3886 : fffffffd;
3887 : 00000005;
3888 : fffffff8;
3889 : 00000003;
3890 : 00000000;
3891 : 0000000a;
3892 : 00000005;
3893 : fffffff8;
3894 : fffffff2;
3895 : fffffffd;
3896 : fffffffd;
3897 : fffffff6;
3898 : fffffffb;
3899 : fffffffb;
3900 : 00000000;
3901 : 00000003;
3902 : 00000005;
3903 : fffffffd;
3904 : 00000003;
3905 : 00000000;
3906 : 00000019;
3907 : fffffffb;
3908 : 00000005;
3909 : 00000000;
3910 : 0000000a;
3911 : fffffffd;
3912 : 00000005;
3913 : 0000000f;
3914 : fffffff8;
3915 : fffffffb;
3916 : fffffff6;
3917 : fffffff8;
3918 : 00000003;
3919 : 00000003;
3920 : fffffffd;
3921 : fffffff6;
3922 : fffffffb;
3923 : 00000003;
3924 : 00000000;
3925 : ffffffef;
3926 : fffffff1;
3927 : 00000008;
3928 : fffffff8;
3929 : fffffff8;
3930 : 0000000f;
3931 : fffffffd;
3932 : 00000000;
3933 : 00000000;
3934 : fffffff6;
3935 : 00000003;
3936 : 0000000f;
3937 : fffffffd;
3938 : fffffff8;
3939 : 00000000;
3940 : fffffffd;
3941 : 00000000;
3942 : 00000005;
3943 : 00000000;
3944 : fffffff8;
3945 : 00000008;
3946 : 0000000a;
3947 : fffffffb;
3948 : fffffffd;
3949 : 00000000;
3950 : fffffff8;
3951 : 00000000;
3952 : 00000005;
3953 : 00000008;
3954 : 00000003;
3955 : fffffffb;
3956 : 00000000;
3957 : 00000005;
3958 : fffffff1;
3959 : 00000003;
3960 : fffffffb;
3961 : 0000000f;
3962 : fffffffd;
3963 : 00000005;
3964 : fffffffb;
3965 : fffffffd;
3966 : fffffff6;
3967 : fffffff6;
3968 : fffffffd;
3969 : 0000000a;
3970 : 00000002;
3971 : 00000003;
3972 : 0000000c;
3973 : 00000005;
3974 : 00000005;
3975 : 00000000;
3976 : 00000005;
3977 : fffffff1;
3978 : 00000002;
3979 : 00000005;
3980 : 00000005;
3981 : fffffff8;
3982 : 00000005;
3983 : 00000000;
3984 : 0000000a;
3985 : 00000000;
3986 : fffffff6;
3987 : fffffffb;
3988 : 00000000;
3989 : 00000003;
3990 : 00000000;
3991 : 00000000;
3992 : fffffff2;
3993 : fffffffd;
3994 : 00000000;
3995 : fffffff6;
3996 : 0000000a;
3997 : fffffff7;
3998 : 00000005;
3999 : 00000000;
4000 : 00000001;
4001 : fffffffd;
4002 : fffffff6;
4003 : fffffff6;
4004 : 0000000a;
4005 : 0000000a;
4006 : 0000000a;
4007 : 00000000;
4008 : 0000000a;
4009 : fffffff6;
4010 : 0000000f;
4011 : 00000005;
4012 : fffffffb;
4013 : 00000005;
4014 : fffffffd;
4015 : fffffff8;
4016 : 00000000;
4017 : fffffff7;
4018 : 00000005;
4019 : 0000000a;
4020 : fffffffb;
4021 : fffffffd;
4022 : fffffff6;
4023 : 00000000;
4024 : fffffff4;
4025 : 00000000;
4026 : 00000000;
4027 : fffffffb;
4028 : 00000014;
4029 : 00000005;
4030 : 00000000;
4031 : fffffff1;
4032 : 00000000;
4033 : 00000000;
4034 : 00000005;
4035 : 00000005;
4036 : fffffffb;
4037 : fffffff9;
4038 : 00000005;
4039 : fffffffb;
4040 : fffffff8;
4041 : 00000000;
4042 : 00000005;
4043 : fffffffb;
4044 : fffffff1;
4045 : fffffff6;
4046 : 0000000a;
4047 : 0000000f;
4048 : fffffff1;
4049 : 00000005;
4050 : fffffffb;
4051 : fffffff6;
4052 : 00000000;
4053 : fffffffb;
4054 : fffffff8;
4055 : 00000005;
4056 : 00000000;
4057 : fffffffd;
4058 : 00000000;
4059 : fffffffb;
4060 : fffffff8;
4061 : 0000000a;
4062 : 00000005;
4063 : 00000000;
4064 : 0000000f;
4065 : fffffffb;
4066 : 00000008;
4067 : 00000003;
4068 : 0000000a;
4069 : 0000000f;
4070 : 00000008;
4071 : fffffffb;
4072 : fffffffd;
4073 : fffffff8;
4074 : 0000000a;
4075 : fffffff6;
4076 : fffffff6;
4077 : 00000000;
4078 : 00000005;
4079 : 00000005;
4080 : fffffffb;
4081 : 00000002;
4082 : fffffff9;
4083 : 0000000a;
4084 : fffffffd;
4085 : 00000014;
4086 : 00000003;
4087 : 00000005;
4088 : 00000005;
4089 : fffffffd;
4090 : 00000000;
4091 : 00000002;
4092 : fffffff8;
4093 : 0000000a;
4094 : 00000000;
4095 : 00000008;
4096 : fffffffb;
4097 : 00000000;
4098 : fffffffb;
4099 : 0000000a;
4100 : 00000005;
4101 : 00000005;
4102 : 00000000;
4103 : 00000005;
4104 : 00000005;
4105 : 0000000a;
4106 : 0000000a;
4107 : fffffffb;
4108 : fffffff6;
4109 : 00000000;
4110 : 00000005;
4111 : ffffffef;
4112 : fffffff9;
4113 : 00000000;
4114 : fffffff7;
4115 : fffffff6;
4116 : fffffffb;
4117 : 00000005;
4118 : fffffffd;
4119 : 00000003;
4120 : fffffffd;
4121 : fffffff1;
4122 : 00000000;
4123 : fffffffb;
4124 : fffffff1;
4125 : fffffff6;
4126 : 00000005;
4127 : 00000000;
4128 : 00000005;
4129 : 00000000;
4130 : fffffffb;
4131 : fffffff1;
4132 : 0000000f;
4133 : 00000008;
4134 : fffffff6;
4135 : 00000005;
4136 : 00000000;
4137 : fffffffe;
4138 : fffffff6;
4139 : fffffffb;
4140 : 00000005;
4141 : 00000003;
4142 : 00000000;
4143 : 00000000;
4144 : 0000000f;
4145 : 0000000f;
4146 : 00000005;
4147 : fffffff1;
4148 : 00000000;
4149 : 00000010;
4150 : 0000000a;
4151 : fffffffd;
4152 : 00000005;
4153 : 00000000;
4154 : ffffffed;
4155 : 00000000;
4156 : fffffff6;
4157 : 00000005;
4158 : 0000000a;
4159 : fffffffb;
4160 : 0000000a;
4161 : 00000007;
4162 : fffffffd;
4163 : fffffffd;
4164 : 00000005;
4165 : 00000000;
4166 : 0000000a;
4167 : fffffff1;
4168 : fffffff1;
4169 : 00000000;
4170 : fffffffb;
4171 : 00000000;
4172 : 00000000;
4173 : 00000000;
4174 : fffffffb;
4175 : 00000000;
4176 : 0000000a;
4177 : 00000005;
4178 : fffffff2;
4179 : fffffffb;
4180 : 00000003;
4181 : 00000005;
4182 : fffffffd;
4183 : 0000000f;
4184 : 0000000a;
4185 : 0000000a;
4186 : fffffffb;
4187 : 0000000f;
4188 : fffffff8;
4189 : 00000000;
4190 : 00000005;
4191 : fffffff4;
4192 : 0000000a;
4193 : fffffff6;
4194 : fffffffb;
4195 : 00000000;
4196 : 00000005;
4197 : fffffffd;
4198 : 00000005;
4199 : 0000000a;
4200 : 00000000;
4201 : fffffff8;
4202 : fffffff2;
4203 : 00000000;
4204 : 00000002;
4205 : fffffffb;
4206 : 00000000;
4207 : 00000005;
4208 : fffffff6;
4209 : fffffff8;
4210 : 00000000;
4211 : 00000000;
4212 : fffffff1;
4213 : 00000010;
4214 : 00000000;
4215 : 0000000a;
4216 : 00000004;
4217 : fffffff1;
4218 : fffffffb;
4219 : 0000000a;
4220 : fffffffb;
4221 : 00000000;
4222 : fffffff6;
4223 : fffffffb;
4224 : 00000000;
4225 : 00000004;
4226 : 0000000f;
4227 : 0000000a;
4228 : 00000000;
4229 : 00000005;
4230 : 00000005;
4231 : 00000000;
4232 : 00000000;
4233 : fffffffd;
4234 : 0000000a;
4235 : fffffff6;
4236 : fffffff1;
4237 : fffffffc;
4238 : 00000000;
4239 : fffffff6;
4240 : fffffff9;
4241 : fffffff1;
4242 : 0000000a;
4243 : 0000000e;
4244 : 00000000;
4245 : fffffff8;
4246 : 00000007;
4247 : 00000005;
4248 : 00000003;
4249 : 0000000a;
4250 : fffffffd;
4251 : 0000000b;
4252 : 00000000;
4253 : fffffffb;
4254 : 0000000a;
4255 : 00000005;
4256 : 0000000f;
4257 : fffffffd;
4258 : 00000000;
4259 : 00000000;
4260 : fffffff3;
4261 : fffffffb;
4262 : 0000000d;
4263 : 00000005;
4264 : fffffff6;
4265 : ffffffec;
4266 : 0000000a;
4267 : 00000001;
4268 : 00000005;
4269 : 00000000;
4270 : 00000000;
4271 : 00000005;
4272 : 00000013;
4273 : 00000002;
4274 : 00000001;
4275 : 00000005;
4276 : fffffffb;
4277 : 00000005;
4278 : fffffff8;
4279 : 00000005;
4280 : fffffff1;
4281 : ffffffec;
4282 : 00000002;
4283 : fffffffb;
4284 : fffffffb;
4285 : fffffff1;
4286 : fffffffb;
4287 : 00000000;
4288 : 00000003;
4289 : fffffff1;
4290 : fffffff9;
4291 : ffffffec;
4292 : 0000000a;
4293 : fffffffd;
4294 : 00000000;
4295 : 0000000a;
4296 : 00000005;
4297 : 00000000;
4298 : 00000000;
4299 : fffffffb;
4300 : fffffff6;
4301 : fffffffb;
4302 : 00000000;
4303 : 0000000a;
4304 : 0000000f;
4305 : 00000000;
4306 : fffffffb;
4307 : 00000005;
4308 : 00000005;
4309 : 0000000f;
4310 : 00000005;
4311 : 00000005;
4312 : ffffffed;
4313 : 00000000;
4314 : fffffffd;
4315 : 00000005;
4316 : 00000002;
4317 : 00000005;
4318 : 00000013;
4319 : 0000000a;
4320 : fffffff6;
4321 : 0000000a;
4322 : fffffff8;
4323 : fffffff8;
4324 : 0000000a;
4325 : 00000008;
4326 : fffffffd;
4327 : 00000000;
4328 : 00000000;
4329 : 0000000e;
4330 : 00000005;
4331 : fffffffc;
4332 : 0000000a;
4333 : 0000000a;
4334 : 0000000e;
4335 : 00000003;
4336 : 00000000;
4337 : fffffffb;
4338 : 00000005;
4339 : fffffffb;
4340 : fffffffd;
4341 : fffffff7;
4342 : fffffff8;
4343 : fffffff2;
4344 : 0000000a;
4345 : fffffffb;
4346 : fffffffd;
4347 : 00000005;
4348 : fffffff7;
4349 : 0000000d;
4350 : fffffffb;
4351 : fffffff8;
4352 : 00000009;
4353 : fffffffb;
4354 : 00000014;
4355 : fffffffb;
4356 : 0000000c;
4357 : 00000000;
4358 : 00000008;
4359 : 00000000;
4360 : fffffffb;
4361 : 00000000;
4362 : fffffffd;
4363 : 00000005;
4364 : fffffffb;
4365 : 00000005;
4366 : 0000000f;
4367 : 00000005;
4368 : 00000000;
4369 : 0000000a;
4370 : fffffffb;
4371 : fffffff6;
4372 : fffffffb;
4373 : 00000000;
4374 : 0000000f;
4375 : fffffff6;
4376 : fffffff1;
4377 : fffffffb;
4378 : 00000000;
4379 : 00000001;
4380 : 0000000a;
4381 : 00000000;
4382 : 00000005;
4383 : 00000005;
4384 : 0000000a;
4385 : 0000000a;
4386 : fffffff6;
4387 : 00000000;
4388 : 00000000;
4389 : 00000000;
4390 : fffffffe;
4391 : fffffffb;
4392 : fffffff1;
4393 : 00000000;
4394 : 00000005;
4395 : fffffff6;
4396 : fffffffc;
4397 : ffffffed;
4398 : fffffff4;
4399 : 00000005;
4400 : 00000005;
4401 : fffffff1;
4402 : 0000000a;
4403 : fffffff6;
4404 : 00000005;
4405 : 00000000;
4406 : 0000000a;
4407 : 0000000a;
4408 : 00000000;
4409 : 00000000;
4410 : 00000000;
4411 : 00000005;
4412 : 00000000;
4413 : 0000000a;
4414 : 00000005;
4415 : fffffff6;
4416 : fffffff6;
4417 : 00000007;
4418 : fffffff6;
4419 : fffffff1;
4420 : 00000004;
4421 : fffffff6;
4422 : 00000000;
4423 : fffffffb;
4424 : 0000000a;
4425 : 00000005;
4426 : fffffffd;
4427 : 00000000;
4428 : fffffffb;
4429 : fffffffb;
4430 : fffffffd;
4431 : 00000005;
4432 : 00000000;
4433 : fffffff1;
4434 : 00000000;
4435 : 00000009;
4436 : fffffffb;
4437 : 00000005;
4438 : 00000000;
4439 : fffffff6;
4440 : fffffff6;
4441 : 00000002;
4442 : 00000000;
4443 : 00000010;
4444 : 00000000;
4445 : 00000005;
4446 : 00000005;
4447 : 0000000a;
4448 : 00000014;
4449 : 0000000a;
4450 : fffffffd;
4451 : 00000000;
4452 : fffffff7;
4453 : fffffff7;
4454 : 00000005;
4455 : 00000000;
4456 : 00000005;
4457 : 00000005;
4458 : 00000005;
4459 : 00000009;
4460 : 0000000a;
4461 : 00000000;
4462 : fffffff1;
4463 : fffffffb;
4464 : 00000000;
4465 : 0000000a;
4466 : 0000000a;
4467 : 00000005;
4468 : 00000003;
4469 : fffffffd;
4470 : 00000000;
4471 : fffffffd;
4472 : 00000003;
4473 : fffffff7;
4474 : 00000000;
4475 : fffffffb;
4476 : 00000002;
4477 : ffffffed;
4478 : 0000000e;
4479 : 00000005;
4480 : 00000005;
4481 : 00000002;
4482 : fffffff6;
4483 : 00000005;
4484 : 00000000;
4485 : 00000004;
4486 : 00000005;
4487 : fffffffd;
4488 : fffffffb;
4489 : fffffffd;
4490 : 0000000e;
4491 : 00000000;
4492 : fffffffd;
4493 : 00000000;
4494 : fffffffb;
4495 : fffffff6;
4496 : fffffff6;
4497 : fffffffb;
4498 : fffffffb;
4499 : fffffff6;
4500 : fffffffb;
4501 : 00000000;
4502 : 0000000a;
4503 : 00000000;
4504 : fffffffd;
4505 : 00000003;
4506 : fffffffb;
4507 : 0000000a;
4508 : 0000000f;
4509 : fffffffb;
4510 : 00000005;
4511 : fffffff9;
4512 : fffffff8;
4513 : 0000000a;
4514 : 00000005;
4515 : fffffff6;
4516 : 00000005;
4517 : 00000000;
4518 : fffffff8;
4519 : 00000000;
4520 : fffffff8;
4521 : 00000002;
4522 : fffffff6;
4523 : 00000005;
4524 : 0000000a;
4525 : fffffff8;
4526 : 00000005;
4527 : fffffffd;
4528 : 00000005;
4529 : fffffffb;
4530 : fffffffe;
4531 : fffffff8;
4532 : 00000007;
4533 : 00000003;
4534 : 00000000;
4535 : 00000005;
4536 : ffffffec;
4537 : 00000005;
4538 : 00000005;
4539 : fffffffd;
4540 : 0000000a;
4541 : fffffffb;
4542 : fffffff3;
4543 : fffffff6;
4544 : 0000000f;
4545 : fffffff1;
4546 : fffffff6;
4547 : 00000005;
4548 : 00000007;
4549 : fffffff8;
4550 : fffffffb;
4551 : 00000009;
4552 : 00000000;
4553 : 00000000;
4554 : 00000005;
4555 : fffffffd;
4556 : 00000005;
4557 : 00000000;
4558 : 0000000a;
4559 : 00000005;
4560 : 0000000e;
4561 : 00000005;
4562 : 00000000;
4563 : 0000000a;
4564 : 0000000b;
4565 : 00000005;
4566 : 00000005;
4567 : 00000005;
4568 : 00000000;
4569 : 0000000f;
4570 : fffffff8;
4571 : 00000014;
4572 : fffffff6;
4573 : 00000005;
4574 : 00000005;
4575 : fffffffb;
4576 : 0000000a;
4577 : 0000000f;
4578 : 0000000a;
4579 : fffffff6;
4580 : 00000005;
4581 : fffffffd;
4582 : fffffff6;
4583 : 0000000f;
4584 : fffffff1;
4585 : 00000003;
4586 : 00000002;
4587 : fffffffb;
4588 : fffffffc;
4589 : 00000007;
4590 : 00000005;
4591 : fffffff8;
4592 : fffffffb;
4593 : 00000000;
4594 : 00000000;
4595 : 0000000a;
4596 : 00000005;
4597 : fffffffb;
4598 : fffffffb;
4599 : 00000000;
4600 : 00000000;
4601 : fffffffe;
4602 : fffffffb;
4603 : 00000005;
4604 : 00000000;
4605 : 00000003;
4606 : fffffffb;
4607 : 00000003;
4608 : 00000000;
4609 : 0000000e;
4610 : 0000000a;
4611 : fffffffd;
4612 : 00000000;
4613 : fffffffb;
4614 : 00000005;
4615 : fffffff1;
4616 : fffffffb;
4617 : 00000000;
4618 : 00000000;
4619 : 00000005;
4620 : 00000000;
4621 : 00000000;
4622 : fffffff6;
4623 : fffffffb;
4624 : 0000000e;
4625 : 0000000a;
4626 : 00000000;
4627 : 00000005;
4628 : 00000005;
4629 : 0000000a;
4630 : 00000005;
4631 : 00000005;
4632 : 0000001d;
4633 : fffffff7;
4634 : fffffffb;
4635 : 00000005;
4636 : 00000000;
4637 : fffffff6;
4638 : fffffffb;
4639 : 00000000;
4640 : fffffff6;
4641 : fffffffb;
4642 : fffffff7;
4643 : 00000009;
4644 : fffffff2;
4645 : 00000000;
4646 : fffffff6;
4647 : 0000000f;
4648 : 00000005;
4649 : 00000000;
4650 : 0000000e;
4651 : 00000000;
4652 : 00000005;
4653 : fffffff1;
4654 : 00000000;
4655 : 0000000f;
4656 : 00000005;
4657 : 00000000;
4658 : fffffffb;
4659 : 0000000a;
4660 : 00000005;
4661 : fffffffb;
4662 : 00000005;
4663 : 00000000;
4664 : 00000008;
4665 : 00000005;
4666 : fffffff3;
4667 : 00000005;
4668 : fffffffb;
4669 : 00000000;
4670 : 00000000;
4671 : 00000003;
4672 : 00000000;
4673 : fffffff6;
4674 : 00000000;
4675 : 00000005;
4676 : fffffffb;
4677 : fffffffb;
4678 : 00000002;
4679 : 00000007;
4680 : 00000000;
4681 : 00000005;
4682 : 0000000f;
4683 : fffffffd;
4684 : 00000004;
4685 : fffffff6;
4686 : fffffff2;
4687 : 00000003;
4688 : 00000005;
4689 : fffffffd;
4690 : fffffffb;
4691 : 00000005;
4692 : 00000005;
4693 : 00000014;
4694 : 0000000e;
4695 : 00000005;
4696 : fffffff6;
4697 : 0000000f;
4698 : 00000000;
4699 : 00000011;
4700 : 00000000;
4701 : fffffffb;
4702 : 00000002;
4703 : 00000005;
4704 : 00000000;
4705 : 00000000;
4706 : 00000005;
4707 : fffffffd;
4708 : 00000000;
4709 : 00000000;
4710 : fffffffb;
4711 : fffffff6;
4712 : fffffff6;
4713 : 00000005;
4714 : 00000005;
4715 : 00000000;
4716 : 00000005;
4717 : 00000000;
4718 : fffffff8;
4719 : fffffffe;
4720 : 00000005;
4721 : ffffffed;
4722 : fffffffb;
4723 : 00000005;
4724 : 00000000;
4725 : 00000000;
4726 : 0000000a;
4727 : fffffffc;
4728 : 00000000;
4729 : fffffff7;
4730 : ffffffff;
4731 : fffffffb;
4732 : 0000000a;
4733 : fffffffb;
4734 : 00000005;
4735 : fffffffe;
4736 : 00000005;
4737 : ffffffec;
4738 : 00000001;
4739 : 0000000a;
4740 : 00000005;
4741 : 00000005;
4742 : fffffffb;
4743 : fffffff6;
4744 : fffffffb;
4745 : 0000000a;
4746 : fffffffb;
4747 : 00000000;
4748 : fffffffd;
4749 : fffffffb;
4750 : fffffffb;
4751 : fffffffb;
4752 : fffffff8;
4753 : 00000000;
4754 : fffffffb;
4755 : 00000005;
4756 : 00000013;
4757 : 00000005;
4758 : 0000000f;
4759 : fffffff6;
4760 : fffffff7;
4761 : 00000005;
4762 : 00000002;
4763 : 00000002;
4764 : 00000003;
4765 : 00000005;
4766 : fffffff6;
4767 : 00000003;
4768 : fffffffd;
4769 : 00000005;
4770 : 00000002;
4771 : 00000013;
4772 : 00000005;
4773 : 00000005;
4774 : fffffffd;
4775 : 00000005;
4776 : 0000000a;
4777 : fffffffb;
4778 : fffffff8;
4779 : 0000000a;
4780 : 0000000a;
4781 : 00000008;
4782 : 00000000;
4783 : 00000000;
4784 : fffffff6;
4785 : fffffff2;
4786 : fffffffb;
4787 : 00000002;
4788 : fffffff7;
4789 : fffffff7;
4790 : fffffffb;
4791 : 00000005;
4792 : 00000005;
4793 : 00000000;
4794 : fffffffb;
4795 : 00000018;
4796 : 00000000;
4797 : 0000000e;
4798 : 0000000a;
4799 : fffffff6;
4800 : 00000005;
4801 : fffffffb;
4802 : 00000005;
4803 : 00000000;
4804 : 00000005;
4805 : fffffffd;
4806 : 00000000;
4807 : fffffff8;
4808 : 00000000;
4809 : 0000000a;
4810 : fffffffb;
4811 : 00000005;
4812 : 0000000e;
4813 : 0000000a;
4814 : 00000003;
4815 : fffffffb;
4816 : 00000000;
4817 : 0000000a;
4818 : 00000000;
4819 : 00000009;
4820 : fffffffb;
4821 : fffffffb;
4822 : fffffffd;
4823 : fffffffb;
4824 : fffffffb;
4825 : fffffff8;
4826 : 00000002;
4827 : 0000000f;
4828 : 00000008;
4829 : 00000000;
4830 : 00000000;
4831 : fffffffb;
4832 : fffffffd;
4833 : 0000000f;
4834 : 00000005;
4835 : 0000000a;
4836 : 00000013;
4837 : 00000001;
4838 : fffffffb;
4839 : 0000000b;
4840 : 00000000;
4841 : fffffffd;
4842 : fffffffb;
4843 : 0000000a;
4844 : 0000000b;
4845 : fffffffb;
4846 : fffffffb;
4847 : 0000000a;
4848 : fffffffd;
4849 : 00000000;
4850 : 00000000;
4851 : 0000000f;
4852 : 0000000a;
4853 : 0000000f;
4854 : fffffff8;
4855 : fffffffb;
4856 : 00000000;
4857 : 00000005;
4858 : 00000005;
4859 : fffffff6;
4860 : 00000005;
4861 : fffffffb;
4862 : fffffff6;
4863 : 00000005;
4864 : 0000000f;
4865 : 00000005;
4866 : 0000000a;
4867 : fffffff7;
4868 : 00000007;
4869 : fffffff6;
4870 : fffffffb;
4871 : 00000005;
4872 : 00000000;
4873 : 00000005;
4874 : fffffffb;
4875 : 00000000;
4876 : 0000000d;
4877 : 00000000;
4878 : 00000000;
4879 : fffffff2;
4880 : 00000000;
4881 : 00000005;
4882 : 00000014;
4883 : 0000000a;
4884 : 00000009;
4885 : 00000003;
4886 : 00000005;
4887 : 00000000;
4888 : 00000000;
4889 : fffffffb;
4890 : 00000000;
4891 : 0000000e;
4892 : fffffff6;
4893 : fffffffb;
4894 : 00000000;
4895 : fffffffb;
4896 : 00000000;
4897 : fffffffb;
4898 : fffffffd;
4899 : fffffffb;
4900 : fffffffd;
4901 : 00000005;
4902 : 00000002;
4903 : fffffffc;
4904 : 0000000a;
4905 : 0000000a;
4906 : 00000000;
4907 : 00000005;
4908 : 0000000a;
4909 : 00000000;
4910 : 0000000a;
4911 : 00000005;
4912 : fffffffb;
4913 : fffffffb;
4914 : 00000000;
4915 : 00000000;
4916 : 00000000;
4917 : fffffffb;
4918 : 00000000;
4919 : fffffff8;
4920 : 00000000;
4921 : 00000002;
4922 : fffffff1;
4923 : 00000000;
4924 : 00000007;
4925 : 0000000a;
4926 : 0000000f;
4927 : 00000005;
4928 : 00000005;
4929 : 00000000;
4930 : fffffffb;
4931 : 00000005;
4932 : 00000000;
4933 : 00000000;
4934 : 00000005;
4935 : 00000005;
4936 : fffffff6;
4937 : fffffffb;
4938 : 0000000f;
4939 : fffffff1;
4940 : fffffff6;
4941 : fffffffb;
4942 : 00000014;
4943 : 00000005;
4944 : 00000000;
4945 : 00000000;
4946 : fffffffb;
4947 : 00000000;
4948 : 00000000;
4949 : 0000000c;
4950 : fffffff8;
4951 : fffffff6;
4952 : fffffff1;
4953 : 00000000;
4954 : fffffffb;
4955 : 00000000;
4956 : 00000005;
4957 : 00000005;
4958 : ffffffff;
4959 : fffffff1;
4960 : 00000005;
4961 : 00000005;
4962 : 00000005;
4963 : 0000000a;
4964 : 00000000;
4965 : 00000001;
4966 : 00000000;
4967 : 00000005;
4968 : 0000000f;
4969 : ffffffec;
4970 : 00000005;
4971 : 00000000;
4972 : 00000000;
4973 : fffffffb;
4974 : 00000000;
4975 : 00000000;
4976 : 00000005;
4977 : 00000002;
4978 : fffffff7;
4979 : 00000000;
4980 : 00000000;
4981 : 00000000;
4982 : 0000000b;
4983 : 0000000b;
4984 : 00000009;
4985 : 0000000a;
4986 : 00000000;
4987 : fffffff6;
4988 : 00000000;
4989 : ffffffff;
4990 : 00000000;
4991 : fffffffd;
4992 : 00000000;
4993 : 0000000a;
4994 : 00000008;
4995 : 00000005;
4996 : 0000000f;
4997 : 00000013;
4998 : fffffffc;
4999 : 00000008;
5000 : 00000002;
5001 : fffffff8;
5002 : fffffffb;
5003 : 00000005;
5004 : 00000000;
5005 : 00000000;
5006 : fffffffd;
5007 : fffffff1;
5008 : 00000000;
5009 : 00000000;
5010 : 00000005;
5011 : fffffff6;
5012 : ffffffea;
5013 : 0000000a;
5014 : fffffff6;
5015 : 00000009;
5016 : 0000000f;
5017 : fffffffb;
5018 : 00000000;
5019 : 0000000a;
5020 : 00000000;
5021 : fffffff8;
5022 : 00000002;
5023 : fffffffb;
5024 : 00000000;
5025 : 0000000a;
5026 : 0000000f;
5027 : 0000000a;
5028 : fffffff8;
5029 : 00000005;
5030 : fffffff6;
5031 : 0000000b;
5032 : 0000000a;
5033 : fffffffc;
5034 : fffffff1;
5035 : 00000005;
5036 : 00000004;
5037 : 0000000f;
5038 : fffffff8;
5039 : 00000000;
5040 : 0000000a;
5041 : fffffff6;
5042 : 00000005;
5043 : fffffff1;
5044 : fffffffb;
5045 : 00000014;
5046 : 00000010;
5047 : fffffff1;
5048 : 00000000;
5049 : 00000005;
5050 : fffffff7;
5051 : 0000000a;
5052 : 0000000f;
5053 : 00000005;
5054 : fffffff6;
5055 : 00000002;
5056 : 00000003;
5057 : 00000003;
5058 : fffffff1;
5059 : 00000000;
5060 : fffffffb;
5061 : fffffffb;
5062 : fffffffb;
5063 : fffffffb;
5064 : fffffff8;
5065 : fffffffd;
5066 : fffffffd;
5067 : 00000003;
5068 : 00000000;
5069 : 0000000e;
5070 : fffffffb;
5071 : 00000000;
5072 : 00000013;
5073 : fffffffb;
5074 : ffffffed;
5075 : 0000000a;
5076 : 00000005;
5077 : fffffff8;
5078 : 0000000f;
5079 : fffffffb;
5080 : fffffffb;
5081 : 00000000;
5082 : fffffffb;
5083 : 0000000a;
5084 : fffffffd;
5085 : fffffff1;
5086 : 00000008;
5087 : 00000003;
5088 : fffffffb;
5089 : 00000005;
5090 : 00000003;
5091 : fffffff6;
5092 : 00000000;
5093 : fffffff8;
5094 : 0000000f;
5095 : fffffff6;
5096 : 00000000;
5097 : 0000000f;
5098 : ffffffed;
5099 : 00000005;
5100 : fffffffb;
5101 : 00000000;
5102 : 00000005;
5103 : 00000000;
5104 : 00000003;
5105 : 00000000;
5106 : fffffffb;
5107 : 00000003;
5108 : 00000005;
5109 : 0000000a;
5110 : 0000000f;
5111 : 00000000;
5112 : fffffff6;
5113 : 00000000;
5114 : 00000000;
5115 : 0000000a;
5116 : 00000003;
5117 : 00000005;
5118 : 0000000a;
5119 : 0000000a;
5120 : 00000003;
5121 : fffffff8;
5122 : 00000003;
5123 : 0000000a;
5124 : 00000000;
5125 : fffffffb;
5126 : 00000005;
5127 : fffffff8;
5128 : 00000000;
5129 : 00000005;
5130 : 0000000a;
5131 : 00000000;
5132 : 0000000a;
5133 : 00000005;
5134 : 00000000;
5135 : fffffffb;
5136 : 00000000;
5137 : fffffff6;
5138 : 00000003;
5139 : 00000005;
5140 : fffffffd;
5141 : 00000005;
5142 : 00000003;
5143 : 00000005;
5144 : 00000003;
5145 : 0000000a;
5146 : 00000005;
5147 : 00000000;
5148 : 00000005;
5149 : 00000008;
5150 : fffffffb;
5151 : fffffffb;
5152 : fffffff6;
5153 : fffffffb;
5154 : fffffff8;
5155 : 00000000;
5156 : 0000000a;
5157 : 00000005;
5158 : 00000005;
5159 : 00000000;
5160 : fffffff6;
5161 : 00000005;
5162 : 0000000f;
5163 : fffffffb;
5164 : 00000000;
5165 : fffffff6;
5166 : 00000005;
5167 : 00000005;
5168 : fffffff1;
5169 : fffffff6;
5170 : 00000000;
5171 : 00000003;
5172 : 00000003;
5173 : 0000000a;
5174 : 0000000f;
5175 : 0000000a;
5176 : 0000000a;
5177 : fffffff8;
5178 : 00000000;
5179 : 0000000a;
5180 : 0000000f;
5181 : 0000000f;
5182 : fffffffd;
5183 : 0000000a;
5184 : fffffffd;
5185 : 00000000;
5186 : 00000005;
5187 : 00000003;
5188 : 00000008;
5189 : 00000005;
5190 : 00000005;
5191 : 00000005;
5192 : 00000005;
5193 : fffffffd;
5194 : 00000005;
5195 : fffffff6;
5196 : ffffffe5;
5197 : 00000005;
5198 : fffffff6;
5199 : 00000005;
5200 : 00000000;
5201 : 00000005;
5202 : fffffffd;
5203 : fffffff6;
5204 : 00000005;
5205 : 00000003;
5206 : fffffff8;
5207 : fffffffb;
5208 : fffffffb;
5209 : 0000000a;
5210 : 0000000f;
5211 : 00000000;
5212 : fffffff1;
5213 : ffffffef;
5214 : 00000000;
5215 : 00000003;
5216 : 00000000;
5217 : fffffff8;
5218 : 0000000f;
5219 : 00000005;
5220 : fffffffb;
5221 : 00000003;
5222 : fffffffb;
5223 : 0000000a;
5224 : fffffff6;
5225 : 00000005;
5226 : fffffffb;
5227 : fffffffb;
5228 : 00000008;
5229 : fffffffb;
5230 : 0000000f;
5231 : 00000000;
5232 : fffffffd;
5233 : fffffffd;
5234 : fffffffb;
5235 : fffffffb;
5236 : 00000005;
5237 : 0000000a;
5238 : 00000003;
5239 : 00000008;
5240 : fffffffb;
5241 : fffffffd;
5242 : 00000000;
5243 : fffffffd;
5244 : 00000005;
5245 : 0000000a;
5246 : 0000000a;
5247 : 0000000a;
5248 : fffffff8;
5249 : 00000005;
5250 : 00000005;
5251 : 00000000;
5252 : 00000005;
5253 : fffffffd;
5254 : 00000000;
5255 : fffffff6;
5256 : 00000003;
5257 : 00000005;
5258 : fffffff4;
5259 : 00000003;
5260 : 0000000f;
5261 : 00000003;
5262 : 00000005;
5263 : 00000000;
5264 : 0000000f;
5265 : 00000005;
5266 : 00000000;
5267 : fffffffd;
5268 : 00000005;
5269 : fffffff8;
5270 : 0000000a;
5271 : 00000000;
5272 : fffffff4;
5273 : 00000000;
5274 : 00000005;
5275 : 00000014;
5276 : fffffff8;
5277 : 00000005;
5278 : fffffff6;
5279 : 00000005;
5280 : 0000000a;
5281 : 00000000;
5282 : fffffff6;
5283 : 00000000;
5284 : fffffffb;
5285 : 00000005;
5286 : fffffff6;
5287 : 00000003;
5288 : fffffffd;
5289 : 0000000a;
5290 : fffffffd;
5291 : 00000008;
5292 : 0000000a;
5293 : 00000005;
5294 : 00000014;
5295 : fffffff2;
5296 : 00000000;
5297 : 00000000;
5298 : 00000000;
5299 : 00000000;
5300 : 00000000;
5301 : fffffffb;
5302 : fffffff6;
5303 : fffffffd;
5304 : 0000000f;
5305 : fffffff1;
5306 : 00000000;
5307 : fffffff6;
5308 : 0000000f;
5309 : 00000000;
5310 : fffffff8;
5311 : 00000005;
5312 : fffffff6;
5313 : 00000000;
5314 : 00000000;
5315 : 00000000;
5316 : 00000003;
5317 : fffffff1;
5318 : fffffff1;
5319 : fffffffb;
5320 : fffffff8;
5321 : 00000000;
5322 : 0000000a;
5323 : 00000000;
5324 : 00000005;
5325 : 00000005;
5326 : 00000003;
5327 : 00000003;
5328 : 00000008;
5329 : fffffff2;
5330 : 0000000f;
5331 : 00000005;
5332 : 0000000a;
5333 : fffffff1;
5334 : 0000000a;
5335 : fffffffb;
5336 : fffffff8;
5337 : 00000000;
5338 : 0000000a;
5339 : 0000000a;
5340 : 0000000a;
5341 : 00000000;
5342 : 0000000f;
5343 : fffffff6;
5344 : 00000000;
5345 : fffffff6;
5346 : fffffffd;
5347 : 00000005;
5348 : fffffff8;
5349 : 00000000;
5350 : 00000003;
5351 : 0000000a;
5352 : fffffffb;
5353 : 00000005;
5354 : 00000000;
5355 : 00000000;
5356 : 0000000a;
5357 : ffffffed;
5358 : 00000005;
5359 : fffffff6;
5360 : 00000005;
5361 : fffffff1;
5362 : 00000000;
5363 : 0000000a;
5364 : 00000005;
5365 : 00000000;
5366 : fffffff6;
5367 : 0000000a;
5368 : 00000005;
5369 : 00000005;
5370 : fffffff6;
5371 : 00000000;
5372 : 00000005;
5373 : fffffff6;
5374 : 00000005;
5375 : 00000005;
5376 : 00000003;
5377 : fffffff6;
5378 : 00000000;
5379 : fffffff1;
5380 : fffffff6;
5381 : 00000005;
5382 : fffffffb;
5383 : fffffffb;
5384 : fffffff8;
5385 : fffffffb;
5386 : 00000003;
5387 : fffffff8;
5388 : ffffffed;
5389 : 00000003;
5390 : fffffff4;
5391 : fffffff6;
5392 : 00000005;
5393 : 00000003;
5394 : fffffffd;
5395 : 00000005;
5396 : 00000003;
5397 : 00000003;
5398 : 00000005;
5399 : 00000000;
5400 : fffffffb;
5401 : 00000011;
5402 : 00000000;
5403 : fffffffd;
5404 : 00000005;
5405 : 00000003;
5406 : fffffffb;
5407 : 00000008;
5408 : fffffff2;
5409 : 0000000a;
5410 : fffffffb;
5411 : 00000005;
5412 : fffffffd;
5413 : fffffff2;
5414 : 0000000a;
5415 : 00000000;
5416 : fffffffd;
5417 : 0000000f;
5418 : 00000005;
5419 : 00000000;
5420 : fffffffb;
5421 : 00000005;
5422 : fffffffb;
5423 : 00000003;
5424 : 00000000;
5425 : fffffffd;
5426 : 00000003;
5427 : 0000000a;
5428 : fffffff8;
5429 : fffffffb;
5430 : 00000000;
5431 : fffffff2;
5432 : 0000000f;
5433 : fffffffb;
5434 : fffffffb;
5435 : fffffffb;
5436 : fffffffd;
5437 : 00000000;
5438 : 00000005;
5439 : fffffffb;
5440 : 00000003;
5441 : fffffffb;
5442 : 00000014;
5443 : 0000000a;
5444 : fffffffd;
5445 : 00000000;
5446 : 00000000;
5447 : 00000003;
5448 : 00000003;
5449 : 0000000a;
5450 : fffffff6;
5451 : 00000005;
5452 : fffffffb;
5453 : fffffff6;
5454 : fffffffb;
5455 : 00000005;
5456 : 00000005;
5457 : 00000000;
5458 : fffffffd;
5459 : fffffffd;
5460 : 00000005;
5461 : 00000005;
5462 : 00000000;
5463 : 00000003;
5464 : fffffffb;
5465 : fffffff8;
5466 : 00000005;
5467 : 00000000;
5468 : ffffffed;
5469 : fffffff8;
5470 : 00000000;
5471 : 0000000a;
5472 : fffffffb;
5473 : 00000005;
5474 : 00000000;
5475 : fffffff6;
5476 : fffffffb;
5477 : fffffffd;
5478 : 0000000f;
5479 : fffffff8;
5480 : 0000000f;
5481 : fffffffb;
5482 : 00000003;
5483 : 0000000a;
5484 : fffffffb;
5485 : 00000005;
5486 : fffffff6;
5487 : 00000000;
5488 : 0000000f;
5489 : 00000000;
5490 : fffffff8;
5491 : 00000000;
5492 : fffffffd;
5493 : 00000014;
5494 : 0000000f;
5495 : fffffff8;
5496 : fffffff4;
5497 : fffffffb;
5498 : 00000005;
5499 : 00000005;
5500 : 00000000;
5501 : fffffff8;
5502 : fffffff1;
5503 : fffffffd;
5504 : fffffff6;
5505 : fffffffb;
5506 : fffffff1;
5507 : 00000000;
5508 : fffffff6;
5509 : 00000005;
5510 : fffffff8;
5511 : 0000000a;
5512 : 0000000a;
5513 : fffffffb;
5514 : fffffff6;
5515 : 00000000;
5516 : 00000000;
5517 : 00000000;
5518 : 00000005;
5519 : 00000005;
5520 : fffffffd;
5521 : 00000000;
5522 : fffffff2;
5523 : 0000000a;
5524 : 00000000;
5525 : 00000005;
5526 : 00000005;
5527 : 0000000a;
5528 : 00000000;
5529 : 00000000;
5530 : 00000000;
5531 : 00000005;
5532 : 00000005;
5533 : 00000005;
5534 : fffffffb;
5535 : 00000000;
5536 : 0000000a;
5537 : fffffff8;
5538 : 00000000;
5539 : 0000000f;
5540 : fffffffb;
5541 : 0000000a;
5542 : fffffffb;
5543 : 0000000a;
5544 : 0000000a;
5545 : 00000000;
5546 : 0000000a;
5547 : 00000005;
5548 : ffffffed;
5549 : fffffffd;
5550 : 0000000f;
5551 : 00000005;
5552 : 00000003;
5553 : 00000000;
5554 : 0000000a;
5555 : 00000000;
5556 : fffffff6;
5557 : fffffffd;
5558 : 0000000a;
5559 : 00000005;
5560 : 00000000;
5561 : 0000000a;
5562 : 0000000a;
5563 : 00000000;
5564 : 0000000a;
5565 : 00000008;
5566 : 00000003;
5567 : fffffffd;
5568 : 00000003;
5569 : 00000000;
5570 : fffffffd;
5571 : fffffff8;
5572 : fffffff8;
5573 : fffffff6;
5574 : 00000000;
5575 : 0000000a;
5576 : fffffff6;
5577 : 00000000;
5578 : 00000000;
5579 : 00000014;
5580 : fffffff6;
5581 : 00000005;
5582 : 0000000a;
5583 : 0000000a;
5584 : fffffffd;
5585 : fffffff8;
5586 : fffffffd;
5587 : 0000000f;
5588 : 00000005;
5589 : 00000000;
5590 : fffffffb;
5591 : 00000003;
5592 : 00000000;
5593 : 0000000f;
5594 : 00000000;
5595 : 00000005;
5596 : 00000008;
5597 : fffffffd;
5598 : 0000000f;
5599 : 00000000;
5600 : fffffffb;
5601 : 0000000f;
5602 : fffffff6;
5603 : fffffff2;
5604 : 00000005;
5605 : 00000005;
5606 : 00000000;
5607 : 0000000f;
5608 : 00000014;
5609 : fffffffb;
5610 : 00000000;
5611 : fffffffb;
