WIDTH = 32;
DEPTH = 2048;

ADDRESS_RADIX = DEC;
DATA_RADIX = HEX;

CONTENT BEGIN
0 : 00000005;
1 : fffffff2;
2 : fffffffb;
3 : 00000013;
4 : 00000000;
5 : 00000000;
6 : 00000006;
7 : 00000000;
8 : fffffff9;
9 : 00000002;
10 : fffffff8;
11 : 0000000a;
12 : fffffff6;
13 : fffffff8;
14 : fffffff7;
15 : 00000018;
16 : fffffffb;
17 : ffffffed;
18 : ffffffed;
19 : 00000005;
20 : fffffffb;
21 : 00000013;
22 : 0000000a;
23 : fffffffe;
24 : fffffff2;
25 : fffffff1;
26 : 00000008;
27 : 00000005;
28 : 00000000;
29 : fffffff2;
30 : fffffffb;
31 : fffffff2;
32 : 00000000;
33 : 0000000a;
34 : fffffff7;
35 : 00000000;
36 : 0000000b;
37 : fffffffc;
38 : fffffffd;
39 : fffffff2;
40 : fffffffb;
41 : 00000005;
42 : 00000000;
43 : fffffff8;
44 : 0000000f;
45 : 00000005;
46 : 00000013;
47 : 00000000;
48 : 0000000a;
49 : fffffff8;
50 : 00000018;
51 : 00000013;
52 : fffffff7;
53 : 0000000a;
54 : 00000013;
55 : fffffff7;
56 : 0000000f;
57 : 0000000a;
58 : 0000000a;
59 : 00000005;
60 : 00000005;
61 : 0000000f;
62 : 00000011;
63 : 00000005;
64 : fffffff7;
65 : 00000005;
66 : 00000019;
67 : 0000000a;
68 : 00000000;
69 : 00000005;
70 : fffffff2;
71 : 0000000f;
72 : fffffff6;
73 : fffffff6;
74 : fffffffb;
75 : 0000000f;
76 : 00000002;
77 : 0000000f;
78 : 0000000f;
79 : 00000003;
80 : fffffff6;
81 : 0000000f;
82 : 00000005;
83 : 00000014;
84 : 00000005;
85 : 00000000;
86 : 00000000;
87 : 00000005;
88 : 0000000e;
89 : 00000005;
90 : 00000005;
91 : 00000018;
92 : 0000000a;
93 : 0000000a;
94 : 00000005;
95 : 00000005;
96 : 00000000;
97 : 0000000a;
98 : fffffff2;
99 : 0000000a;
100 : 0000000f;
101 : 0000000a;
102 : 00000001;
103 : fffffffc;
104 : 00000000;
105 : 00000000;
106 : 00000005;
107 : 00000000;
108 : 00000005;
109 : ffffffec;
110 : fffffff2;
111 : fffffffb;
112 : 00000000;
113 : fffffff2;
114 : 0000000a;
115 : fffffffb;
116 : fffffffb;
117 : 00000005;
118 : ffffffe8;
119 : 0000000a;
120 : 00000014;
121 : fffffff2;
122 : 00000000;
123 : 0000000f;
124 : 00000005;
125 : fffffff6;
126 : 00000003;
127 : ffffffec;
128 : 0000000a;
129 : fffffff2;
130 : fffffffb;
131 : fffffff2;
132 : fffffffb;
133 : fffffff7;
134 : 0000000a;
135 : fffffff8;
136 : fffffffb;
137 : 0000000f;
138 : 00000014;
139 : 0000000a;
140 : 00000011;
141 : 00000003;
142 : fffffff6;
143 : 00000005;
144 : 00000005;
145 : 0000000a;
146 : 0000000a;
147 : 00000005;
148 : 00000005;
149 : fffffff6;
150 : 00000000;
151 : fffffff6;
152 : 00000001;
153 : fffffffb;
154 : fffffff1;
155 : 0000000f;
156 : 0000000f;
157 : fffffffb;
158 : ffffffff;
159 : 00000000;
160 : fffffffc;
161 : ffffffed;
162 : 00000005;
163 : 00000000;
164 : fffffff7;
165 : fffffffb;
166 : 0000000a;
167 : fffffff7;
168 : 00000000;
169 : fffffffc;
170 : 0000000a;
171 : 00000005;
172 : 00000005;
173 : 00000000;
174 : 00000010;
175 : 00000011;
176 : 00000005;
177 : 00000000;
178 : fffffff7;
179 : 00000000;
180 : 00000005;
181 : fffffff6;
182 : 00000000;
183 : fffffff8;
184 : 00000005;
185 : 0000000f;
186 : 0000000a;
187 : 00000000;
188 : 00000005;
189 : 00000013;
190 : 00000001;
191 : fffffff6;
192 : fffffff7;
193 : 0000000a;
194 : 00000000;
195 : 00000000;
196 : fffffffc;
197 : fffffffb;
198 : fffffff7;
199 : fffffff8;
200 : fffffffb;
201 : 00000013;
202 : 00000000;
203 : 00000019;
204 : 00000000;
205 : 00000000;
206 : 00000000;
207 : 0000000f;
208 : fffffffb;
209 : 0000000a;
210 : 0000000f;
211 : 0000000f;
212 : ffffffed;
213 : fffffff8;
214 : fffffffb;
215 : 00000000;
216 : 0000000a;
217 : 00000000;
218 : 00000005;
219 : ffffffec;
220 : 00000005;
221 : fffffffb;
222 : ffffffed;
223 : fffffffd;
224 : 00000005;
225 : fffffffb;
226 : fffffffc;
227 : 00000005;
228 : 00000000;
229 : fffffffa;
230 : 00000001;
231 : 00000002;
232 : 00000005;
233 : 00000005;
234 : fffffffd;
235 : 0000000a;
236 : 00000000;
237 : 00000005;
238 : 00000001;
239 : fffffffb;
240 : 0000000b;
241 : 0000000f;
242 : fffffffb;
243 : fffffff8;
244 : 00000005;
245 : 00000005;
246 : 00000000;
247 : 0000000f;
248 : 00000005;
249 : fffffff7;
250 : fffffff6;
251 : 00000000;
252 : fffffffe;
253 : ffffffed;
254 : 00000019;
255 : fffffff7;
256 : 00000005;
257 : 00000005;
258 : fffffffb;
259 : 00000000;
260 : fffffffb;
261 : 00000005;
262 : 0000000e;
263 : 0000000a;
264 : 00000012;
265 : 00000001;
266 : fffffffb;
267 : 00000005;
268 : 00000000;
269 : 00000000;
270 : 0000000e;
271 : 0000000f;
272 : 0000000e;
273 : 00000005;
274 : 0000000a;
275 : ffffffee;
276 : fffffff2;
277 : 00000000;
278 : 00000014;
279 : 0000000e;
280 : fffffffc;
281 : 00000000;
282 : 00000005;
283 : ffffffe9;
284 : 00000007;
285 : 00000001;
286 : 00000006;
287 : 00000000;
288 : fffffff8;
289 : fffffff6;
290 : 00000000;
291 : 00000005;
292 : 0000000a;
293 : 00000009;
294 : 00000019;
295 : 00000005;
296 : fffffff7;
297 : 0000000c;
298 : fffffff8;
299 : 00000007;
300 : fffffffb;
301 : fffffff6;
302 : fffffff6;
303 : fffffffb;
304 : 00000000;
305 : 00000000;
306 : 00000000;
307 : 00000000;
308 : 00000000;
309 : fffffff1;
310 : 0000000f;
311 : fffffff1;
312 : 00000006;
313 : 00000005;
314 : fffffffb;
315 : fffffffb;
316 : 0000000a;
317 : 00000000;
318 : 00000002;
319 : 00000005;
320 : 00000005;
321 : fffffffb;
322 : fffffff8;
323 : 00000005;
324 : fffffffb;
325 : fffffffd;
326 : 00000005;
327 : fffffff7;
328 : ffffffe8;
329 : fffffff2;
330 : fffffffe;
331 : 00000005;
332 : 0000000a;
333 : fffffffb;
334 : 00000000;
335 : ffffffef;
336 : fffffffc;
337 : 00000000;
338 : 00000008;
339 : 00000002;
340 : 00000000;
341 : 0000000a;
342 : 0000000a;
343 : 00000005;
344 : fffffffc;
345 : 00000007;
346 : 00000002;
347 : 0000000f;
348 : 00000000;
349 : 00000007;
350 : 00000005;
351 : fffffff6;
352 : 0000000a;
353 : fffffff4;
354 : 00000000;
355 : 0000001d;
356 : 00000005;
357 : fffffffb;
358 : 0000000a;
359 : fffffff7;
360 : ffffffed;
361 : 0000000a;
362 : 00000000;
363 : 00000005;
364 : 00000000;
365 : 0000000e;
366 : 0000000b;
367 : ffffffec;
368 : 00000014;
369 : ffffffe8;
370 : 00000000;
371 : 00000000;
372 : 00000005;
373 : fffffffb;
374 : 00000005;
375 : 00000000;
376 : 00000005;
377 : fffffff6;
378 : fffffffb;
379 : ffffffe7;
380 : 0000000a;
381 : fffffff6;
382 : 00000001;
383 : fffffffb;
384 : 00000002;
385 : fffffffb;
386 : 00000000;
387 : 0000000a;
388 : 0000000b;
389 : 00000014;
390 : 00000005;
391 : 00000000;
392 : 00000000;
393 : 00000002;
394 : 00000018;
395 : fffffff7;
396 : fffffff6;
397 : 00000005;
398 : 00000005;
399 : 00000013;
400 : 00000005;
401 : fffffff2;
402 : 00000000;
403 : 00000005;
404 : fffffff9;
405 : fffffff6;
406 : 00000008;
407 : 00000005;
408 : 00000000;
409 : fffffffb;
410 : fffffffb;
411 : fffffffd;
412 : fffffff1;
413 : fffffffa;
414 : 00000005;
415 : 00000000;
416 : fffffff8;
417 : 00000005;
418 : fffffff6;
419 : 00000005;
420 : 0000000f;
421 : fffffffd;
422 : fffffffc;
423 : 0000000a;
424 : fffffffb;
425 : 00000005;
426 : 00000018;
427 : 00000005;
428 : 00000005;
429 : 00000005;
430 : 00000006;
431 : 00000008;
432 : 0000000f;
433 : fffffff2;
434 : 00000001;
435 : 00000008;
436 : fffffffb;
437 : 0000000f;
438 : 00000005;
439 : 00000000;
440 : 00000005;
441 : fffffffb;
442 : fffffffc;
443 : 00000000;
444 : 00000008;
445 : 00000000;
446 : 00000000;
447 : fffffff2;
448 : 00000000;
449 : 00000005;
450 : 00000000;
451 : 00000000;
452 : 00000000;
453 : 0000000a;
454 : 00000005;
455 : ffffffe8;
456 : 00000000;
457 : 00000014;
458 : 00000000;
459 : fffffffb;
460 : 00000000;
461 : 00000005;
462 : 00000000;
463 : 00000004;
464 : ffffffed;
465 : fffffffc;
466 : 0000000a;
467 : 00000009;
468 : 0000000a;
469 : 00000000;
470 : fffffff3;
471 : fffffff6;
472 : 00000005;
473 : 00000000;
474 : fffffffb;
475 : fffffff6;
476 : 00000005;
477 : 00000000;
478 : 00000010;
479 : 00000000;
480 : 0000000a;
481 : 00000000;
482 : 00000008;
483 : fffffffb;
484 : 00000005;
485 : ffffffe9;
486 : fffffffc;
487 : fffffff2;
488 : 00000005;
489 : 0000000a;
490 : 00000000;
491 : 00000014;
492 : 00000000;
493 : fffffffe;
494 : fffffffb;
495 : ffffffe0;
496 : fffffffe;
497 : 00000005;
498 : 00000005;
499 : 0000000a;
500 : fffffffb;
501 : 00000005;
502 : 00000005;
503 : 00000005;
504 : 0000000a;
505 : 00000000;
506 : fffffff6;
507 : ffffffed;
508 : 00000005;
509 : ffffffe8;
510 : fffffffb;
511 : ffffffed;
512 : fffffff7;
513 : fffffff7;
514 : 00000005;
515 : fffffff1;
516 : 00000005;
517 : 00000005;
518 : fffffffc;
519 : 00000001;
520 : fffffff2;
521 : 0000000f;
522 : fffffffb;
523 : 00000000;
524 : 00000005;
525 : 00000000;
526 : 00000005;
527 : 00000007;
528 : ffffffff;
529 : 00000005;
530 : 00000004;
531 : 0000000a;
532 : 00000000;
533 : 00000005;
534 : fffffffd;
535 : 00000005;
536 : fffffffb;
537 : 00000000;
538 : 00000002;
539 : 00000003;
540 : 0000000a;
541 : fffffff6;
542 : 0000000a;
543 : 00000005;
544 : 0000000b;
545 : 00000014;
546 : 00000000;
547 : fffffff8;
548 : 0000000f;
549 : 00000000;
550 : fffffffb;
551 : fffffffb;
552 : 00000000;
553 : 00000000;
554 : 00000005;
555 : 00000000;
556 : fffffff7;
557 : ffffffed;
558 : 00000005;
559 : fffffff6;
560 : 00000005;
561 : fffffffb;
562 : fffffff7;
563 : fffffff7;
564 : fffffff1;
565 : 00000005;
566 : 0000000f;
567 : 00000014;
568 : 00000005;
569 : 0000000a;
570 : fffffff7;
571 : 0000000a;
572 : 00000000;
573 : fffffffb;
574 : 0000000e;
575 : 0000000a;
576 : 00000005;
577 : 0000000f;
578 : fffffffb;
579 : fffffff7;
580 : 00000001;
581 : 00000000;
582 : 0000000a;
583 : 0000000a;
584 : fffffffd;
585 : 0000000a;
586 : 0000000a;
587 : 0000000e;
588 : 0000000a;
589 : 00000000;
590 : 00000005;
591 : fffffffd;
592 : 00000000;
593 : 0000000f;
594 : 0000000a;
595 : fffffffb;
596 : 0000000b;
597 : 0000000d;
598 : fffffff7;
599 : 0000000f;
600 : 00000005;
601 : ffffffed;
602 : 0000000a;
603 : 00000013;
604 : fffffffc;
605 : 0000000b;
606 : 0000000b;
607 : fffffffb;
608 : 0000000e;
609 : 00000002;
610 : fffffff8;
611 : 00000005;
612 : 0000000a;
613 : fffffffc;
614 : 0000000a;
615 : 0000000a;
616 : fffffff7;
617 : 0000000f;
618 : fffffffc;
619 : fffffff7;
620 : 00000018;
621 : 0000000d;
622 : fffffffb;
623 : fffffffb;
624 : 00000001;
625 : fffffff7;
626 : 00000000;
627 : 0000000f;
628 : 0000000b;
629 : ffffffec;
630 : 00000019;
631 : 0000000e;
632 : 0000000b;
633 : 0000000f;
634 : 00000005;
635 : 00000000;
636 : fffffffb;
637 : 00000000;
638 : 00000007;
639 : ffffffed;
640 : 00000000;
641 : fffffffb;
642 : 00000008;
643 : 0000000a;
644 : 00000005;
645 : 00000013;
646 : 0000000a;
647 : ffffffff;
648 : ffffffed;
649 : 0000000a;
650 : fffffffb;
651 : fffffffc;
652 : 0000000a;
653 : 0000000f;
654 : 00000010;
655 : 00000009;
656 : 00000000;
657 : fffffffb;
658 : 0000000f;
659 : 0000000b;
660 : 00000013;
661 : fffffff2;
662 : fffffff7;
663 : 00000005;
664 : fffffffc;
665 : 0000000f;
666 : 00000005;
667 : 0000000e;
668 : fffffffb;
669 : 0000000a;
670 : 00000011;
671 : 0000000f;
672 : 00000005;
673 : 00000002;
674 : 0000000e;
675 : ffffffed;
676 : 00000005;
677 : 0000000f;
678 : 00000005;
679 : 00000000;
680 : fffffff6;
681 : fffffff8;
682 : 00000000;
683 : ffffffee;
684 : ffffffed;
685 : fffffff6;
686 : 00000000;
687 : 00000000;
688 : 00000005;
689 : 00000000;
690 : 0000000a;
691 : 00000009;
692 : fffffffb;
693 : fffffffd;
694 : 00000005;
695 : fffffff6;
696 : 00000014;
697 : 00000005;
698 : fffffffb;
699 : ffffffed;
700 : fffffffb;
701 : fffffffb;
702 : 00000005;
703 : 0000000a;
704 : 00000001;
705 : 0000001d;
706 : fffffffd;
707 : 00000005;
708 : 00000005;
709 : 0000000b;
710 : fffffffc;
711 : 00000000;
712 : 00000005;
713 : 00000005;
714 : 00000001;
715 : fffffffd;
716 : 0000000a;
717 : 00000000;
718 : 0000000b;
719 : fffffffb;
720 : 0000000e;
721 : 0000000f;
722 : 0000000f;
723 : fffffff6;
724 : fffffff1;
725 : 00000005;
726 : 0000000f;
727 : fffffffb;
728 : 0000000f;
729 : 00000007;
730 : 00000001;
731 : fffffffb;
732 : fffffffb;
733 : fffffffe;
734 : 00000013;
735 : 00000013;
736 : 00000000;
737 : fffffff7;
738 : 00000013;
739 : fffffff7;
740 : 00000005;
741 : 00000005;
742 : 0000000a;
743 : 00000000;
744 : 00000008;
745 : 0000000a;
746 : 00000019;
747 : 00000010;
748 : 00000000;
749 : fffffff6;
750 : 0000000e;
751 : fffffffb;
752 : 0000000f;
753 : fffffff2;
754 : 0000000a;
755 : 00000000;
756 : 00000000;
757 : 00000003;
758 : fffffff2;
759 : fffffff1;
760 : fffffffb;
761 : fffffff6;
762 : fffffffb;
763 : 00000005;
764 : 00000000;
765 : fffffff6;
766 : 00000006;
767 : 00000000;
768 : 0000000a;
769 : fffffff7;
770 : 00000000;
771 : fffffffd;
772 : 0000000f;
773 : 00000000;
774 : fffffff7;
775 : 00000000;
776 : fffffffb;
777 : 00000000;
778 : fffffffc;
779 : 00000005;
780 : fffffffb;
781 : fffffffe;
782 : 0000000e;
783 : 00000002;
784 : 00000019;
785 : 00000005;
786 : 0000000a;
787 : 00000008;
788 : fffffffc;
789 : fffffffd;
790 : ffffffe7;
791 : 00000005;
792 : 00000014;
793 : fffffffd;
794 : fffffffb;
795 : fffffff5;
796 : 0000000a;
797 : 00000000;
798 : fffffffb;
799 : fffffffd;
800 : 00000005;
801 : 0000000f;
802 : fffffff6;
803 : 00000003;
804 : 00000000;
805 : fffffffb;
806 : 00000000;
807 : 00000000;
808 : fffffffb;
809 : 00000001;
810 : 0000000f;
811 : fffffffe;
812 : 0000000b;
813 : 00000005;
814 : 0000000a;
815 : fffffff8;
816 : 0000000a;
817 : 0000000a;
818 : 00000005;
819 : ffffffff;
820 : fffffff2;
821 : 00000001;
822 : 0000000a;
823 : 00000007;
824 : 00000005;
825 : 00000004;
826 : fffffff6;
827 : 0000000f;
828 : 00000005;
829 : 00000000;
830 : 00000009;
831 : 00000005;
832 : 00000005;
833 : 00000014;
834 : 0000000a;
835 : 00000000;
836 : fffffff6;
837 : 0000000a;
838 : 00000005;
839 : 00000000;
840 : 0000000b;
841 : ffffffee;
842 : 00000000;
843 : 00000005;
844 : fffffffb;
845 : 00000005;
846 : 00000005;
847 : fffffffb;
848 : fffffffc;
849 : fffffff7;
850 : 00000005;
851 : fffffffb;
852 : 00000005;
853 : 00000000;
854 : 00000002;
855 : 00000008;
856 : 00000018;
857 : 00000000;
858 : 00000000;
859 : fffffff6;
860 : 00000005;
861 : fffffff8;
862 : 00000005;
863 : fffffff6;
864 : 0000000a;
865 : fffffff7;
866 : 00000003;
867 : 00000000;
868 : 00000006;
869 : ffffffe8;
870 : 00000000;
871 : 0000000a;
872 : fffffffb;
873 : 00000005;
874 : 00000019;
875 : 00000006;
876 : fffffff6;
877 : fffffff8;
878 : fffffff6;
879 : 0000000a;
880 : fffffff2;
881 : fffffff7;
882 : 00000005;
883 : 00000000;
884 : 00000000;
885 : 00000013;
886 : 00000000;
887 : 00000005;
888 : 0000000a;
889 : fffffff6;
890 : 00000002;
891 : fffffffb;
892 : 00000005;
893 : 0000000a;
894 : ffffffee;
895 : 00000005;
896 : 00000003;
897 : fffffff6;
898 : 0000000a;
899 : 0000000f;
900 : 00000005;
901 : 00000001;
902 : 00000005;
903 : 00000000;
904 : 0000000f;
905 : 00000005;
906 : 00000014;
907 : fffffffb;
908 : fffffff2;
909 : 0000000f;
910 : fffffff8;
911 : 0000000a;
912 : 00000005;
913 : 00000005;
914 : 00000018;
915 : 00000005;
916 : ffffffed;
917 : 00000005;
918 : fffffffb;
919 : 00000000;
920 : 0000000f;
921 : fffffffb;
922 : fffffff7;
923 : 00000000;
924 : fffffffe;
925 : fffffffb;
926 : 00000000;
927 : ffffffed;
928 : 00000005;
929 : fffffff7;
930 : 00000000;
931 : 00000005;
932 : 00000005;
933 : fffffffb;
934 : 0000000a;
935 : fffffffc;
936 : 0000000a;
937 : fffffffc;
938 : 00000000;
939 : 00000000;
940 : 0000000f;
941 : 0000000c;
942 : 00000003;
943 : fffffffb;
944 : 00000001;
945 : 0000000a;
946 : 00000007;
947 : 0000000b;
948 : 00000003;
949 : fffffffb;
950 : 0000000f;
951 : 00000000;
952 : 00000001;
953 : 0000000e;
954 : 00000014;
955 : 00000003;
956 : 00000005;
957 : 0000000a;
958 : 0000000a;
959 : fffffff2;
960 : 0000000a;
961 : fffffff2;
962 : 00000005;
963 : fffffff1;
964 : 00000000;
965 : 00000000;
966 : 0000000a;
967 : ffffffed;
968 : 0000000a;
969 : 00000000;
970 : 0000000a;
971 : fffffffc;
972 : ffffffe8;
973 : 0000000e;
974 : 00000003;
975 : 00000000;
976 : 0000000a;
977 : fffffff6;
978 : 00000006;
979 : 00000000;
980 : 0000000f;
981 : fffffff8;
982 : 00000000;
983 : 00000005;
984 : 0000000f;
985 : 0000000a;
986 : 0000000f;
987 : 00000005;
988 : fffffffe;
989 : 00000003;
990 : 0000000f;
991 : 00000005;
992 : 0000000b;
993 : 00000000;
994 : fffffff7;
995 : fffffff6;
996 : ffffffee;
997 : 00000005;
998 : 00000001;
999 : fffffff7;
1000 : 0000000f;
1001 : 00000003;
1002 : fffffff6;
1003 : 00000004;
1004 : 00000005;
1005 : fffffffb;
1006 : ffffffed;
1007 : 00000000;
1008 : fffffffb;
1009 : 00000000;
1010 : 00000001;
1011 : 00000005;
1012 : 0000000a;
1013 : fffffffb;
1014 : fffffff2;
1015 : 00000000;
1016 : fffffffb;
1017 : 00000000;
1018 : 00000009;
1019 : 00000005;
1020 : fffffff7;
1021 : fffffff6;
1022 : 0000000a;
1023 : 00000008;
1024 : 00000001;
1025 : 00000014;
1026 : 00000005;
1027 : fffffff6;
1028 : fffffff7;
1029 : 00000000;
1030 : 0000000f;
1031 : fffffff2;
1032 : fffffff7;
1033 : fffffff7;
1034 : 00000005;
1035 : 0000000a;
1036 : 00000014;
1037 : fffffffe;
1038 : 00000003;
1039 : 00000000;
1040 : 00000001;
1041 : 00000005;
1042 : 0000000e;
1043 : fffffff8;
1044 : 0000000a;
1045 : fffffff6;
1046 : 0000000a;
1047 : ffffffec;
1048 : 0000000b;
1049 : 00000000;
1050 : 00000000;
1051 : 0000000a;
1052 : fffffffb;
1053 : 00000003;
1054 : 00000005;
1055 : fffffffd;
1056 : 00000005;
1057 : 0000000a;
1058 : 0000000a;
1059 : 00000000;
1060 : 00000003;
1061 : 00000001;
1062 : fffffffb;
1063 : 0000000a;
1064 : 0000000a;
1065 : 00000000;
1066 : 00000005;
1067 : 00000018;
1068 : fffffffb;
1069 : fffffff2;
1070 : 0000000a;
1071 : 00000018;
1072 : 00000005;
1073 : fffffffc;
1074 : 00000000;
1075 : 00000000;
1076 : fffffffb;
1077 : 00000000;
1078 : 0000000a;
1079 : 00000000;
1080 : fffffffb;
1081 : fffffffb;
1082 : 00000005;
1083 : 00000002;
1084 : fffffff8;
1085 : 0000000f;
1086 : fffffff6;
1087 : fffffff2;
1088 : 0000000f;
1089 : 00000005;
1090 : 00000003;
1091 : 0000000f;
1092 : 00000000;
1093 : fffffff3;
1094 : 00000000;
1095 : fffffff2;
1096 : 00000005;
1097 : ffffffff;
1098 : 0000000e;
1099 : fffffffb;
1100 : 00000005;
1101 : fffffffb;
1102 : 00000004;
1103 : fffffffb;
1104 : fffffff2;
1105 : 00000014;
1106 : 0000000a;
1107 : 00000000;
1108 : 0000000e;
1109 : fffffffe;
1110 : 00000005;
1111 : 00000005;
1112 : 00000000;
1113 : 00000005;
1114 : 00000005;
1115 : 0000000e;
1116 : fffffffc;
1117 : 00000013;
1118 : 00000009;
1119 : ffffffed;
1120 : fffffffc;
1121 : 00000008;
1122 : fffffffb;
1123 : 00000000;
1124 : ffffffff;
1125 : fffffffe;
1126 : 00000001;
1127 : fffffff7;
1128 : fffffff2;
1129 : 0000000a;
1130 : 0000000a;
1131 : 00000000;
1132 : 00000000;
1133 : 00000009;
1134 : 0000000a;
1135 : ffffffea;
1136 : fffffffb;
1137 : fffffffb;
1138 : 00000005;
1139 : 00000002;
1140 : 00000000;
1141 : fffffffc;
1142 : 00000000;
1143 : 00000014;
1144 : fffffff7;
1145 : fffffffb;
1146 : 0000001d;
1147 : fffffff8;
1148 : fffffffc;
1149 : 0000000a;
1150 : 00000014;
1151 : 0000000a;
1152 : 00000004;
1153 : 00000000;
1154 : 00000001;
1155 : 0000000e;
1156 : 00000018;
1157 : 0000000a;
1158 : 0000000f;
1159 : 0000000b;
1160 : fffffff3;
1161 : 0000000f;
1162 : 00000019;
1163 : 0000000a;
1164 : fffffffb;
1165 : fffffffb;
1166 : 0000000f;
1167 : 00000005;
1168 : 00000000;
1169 : 00000018;
1170 : fffffffc;
1171 : fffffffc;
1172 : fffffffe;
1173 : 00000000;
1174 : 0000000f;
1175 : fffffff1;
1176 : 00000001;
1177 : 00000005;
1178 : fffffffc;
1179 : 00000000;
1180 : 00000007;
1181 : 00000005;
1182 : fffffffb;
1183 : 0000000f;
1184 : fffffffb;
1185 : 00000000;
1186 : 00000005;
1187 : fffffffe;
1188 : 00000000;
1189 : 00000001;
1190 : 00000005;
1191 : 00000005;
1192 : 00000000;
1193 : 00000005;
1194 : 00000001;
1195 : 0000000a;
1196 : 00000005;
1197 : fffffff1;
1198 : fffffffb;
1199 : 0000000a;
1200 : fffffff9;
1201 : fffffffc;
1202 : 00000013;
1203 : fffffff4;
1204 : 0000000a;
1205 : 0000000e;
1206 : 0000000f;
1207 : fffffff7;
1208 : 0000000f;
1209 : 0000000e;
1210 : 00000005;
1211 : 00000005;
1212 : 00000001;
1213 : 00000000;
1214 : 00000000;
1215 : 0000000a;
1216 : 00000006;
1217 : 00000005;
1218 : 0000000a;
1219 : fffffff6;
1220 : fffffff6;
1221 : 00000001;
1222 : fffffffb;
1223 : 00000004;
1224 : 00000000;
1225 : 0000000a;
1226 : 0000000a;
1227 : 00000005;
1228 : 0000000a;
1229 : fffffff7;
1230 : 00000000;
1231 : fffffff6;
1232 : fffffffb;
1233 : fffffffb;
1234 : 00000013;
1235 : 00000001;
1236 : 00000009;
1237 : 00000004;
1238 : 00000005;
1239 : 0000000a;
1240 : fffffffc;
1241 : 0000000f;
1242 : fffffffc;
1243 : 00000013;
1244 : 00000005;
1245 : 00000009;
1246 : 00000000;
1247 : 00000005;
1248 : 00000000;
1249 : 00000002;
1250 : fffffffb;
1251 : 00000005;
1252 : 00000005;
1253 : 00000000;
1254 : fffffffb;
1255 : 00000005;
1256 : 0000000f;
1257 : 00000000;
1258 : 00000005;
1259 : 0000000a;
1260 : fffffffd;
1261 : 00000000;
1262 : 0000000f;
1263 : 00000002;
1264 : fffffffc;
1265 : 0000000a;
1266 : 0000000a;
1267 : fffffffd;
1268 : 00000000;
1269 : fffffffb;
1270 : fffffffb;
1271 : fffffff1;
1272 : 00000005;
1273 : 00000000;
1274 : 00000013;
1275 : 00000005;
1276 : 00000005;
1277 : 0000000a;
1278 : 00000007;
1279 : 00000005;
1280 : 0000000a;
1281 : 0000000a;
1282 : 0000000f;
1283 : 00000000;
1284 : fffffff2;
1285 : 00000008;
1286 : 00000000;
1287 : fffffffb;
1288 : fffffff7;
1289 : fffffffd;
1290 : 0000000f;
1291 : 00000005;
1292 : fffffff6;
1293 : 0000000a;
1294 : 0000000a;
1295 : 00000011;
1296 : 00000003;
1297 : fffffff7;
1298 : 0000000a;
1299 : fffffffd;
1300 : 00000000;
1301 : 0000000d;
1302 : 00000005;
1303 : fffffffc;
1304 : ffffffff;
1305 : fffffff2;
1306 : 0000000f;
1307 : 00000005;
1308 : fffffffd;
1309 : 00000009;
1310 : 0000000a;
1311 : 00000008;
1312 : 0000000f;
1313 : 00000005;
1314 : fffffffb;
1315 : 00000008;
1316 : fffffffb;
1317 : 0000000a;
1318 : fffffff2;
1319 : fffffff7;
1320 : 00000005;
1321 : 00000000;
1322 : fffffff7;
1323 : fffffff6;
1324 : fffffff8;
1325 : fffffffb;
1326 : 00000005;
1327 : fffffff6;
1328 : 00000018;
1329 : fffffffb;
1330 : 00000006;
1331 : 00000009;
1332 : 00000018;
1333 : 00000000;
1334 : 00000014;
1335 : fffffff1;
1336 : ffffffff;
1337 : 0000000a;
1338 : fffffffb;
1339 : 00000000;
1340 : fffffffb;
1341 : 0000000e;
1342 : 00000000;
1343 : 00000002;
1344 : 0000000a;
1345 : 00000002;
1346 : ffffffe3;
1347 : 00000008;
1348 : 00000005;
1349 : fffffffb;
1350 : 00000005;
1351 : 0000000a;
1352 : fffffffb;
1353 : 0000000f;
1354 : 0000000f;
1355 : fffffffc;
1356 : ffffffed;
1357 : 00000005;
1358 : 0000000a;
1359 : fffffffb;
1360 : 0000000a;
1361 : 0000000f;
1362 : 0000000a;
1363 : fffffff1;
1364 : 0000000a;
1365 : 00000004;
1366 : fffffff7;
1367 : 00000000;
1368 : fffffff6;
1369 : fffffffb;
1370 : 00000006;
1371 : 00000000;
1372 : fffffff4;
1373 : 0000000e;
1374 : 00000001;
1375 : fffffffd;
1376 : 00000008;
1377 : 0000000a;
1378 : 00000000;
1379 : fffffffb;
1380 : 00000005;
1381 : 0000000f;
1382 : ffffffee;
1383 : 00000000;
1384 : fffffffb;
1385 : fffffffc;
1386 : 00000001;
1387 : fffffff8;
1388 : fffffffb;
1389 : 00000000;
1390 : 00000005;
1391 : 00000004;
1392 : 00000000;
1393 : fffffff6;
1394 : 0000000f;
1395 : 00000000;
1396 : 0000000b;
1397 : 00000005;
1398 : fffffff7;
1399 : fffffff6;
1400 : 0000000a;
1401 : 00000005;
1402 : fffffffb;
1403 : 00000005;
1404 : 00000005;
1405 : 00000009;
1406 : 0000000f;
1407 : 00000005;
1408 : 00000005;
1409 : fffffffb;
1410 : 0000000a;
1411 : 00000003;
1412 : 00000005;
1413 : 0000000f;
1414 : ffffffec;
1415 : fffffff6;
1416 : 00000008;
1417 : 00000002;
1418 : 00000006;
1419 : 00000005;
1420 : 00000005;
1421 : 00000000;
1422 : 00000005;
1423 : 00000014;
1424 : 00000002;
1425 : 00000014;
1426 : 0000000a;
1427 : 0000000a;
1428 : 00000005;
1429 : 00000005;
1430 : 00000019;
1431 : 0000000a;
1432 : 0000000a;
1433 : fffffff2;
1434 : fffffffb;
1435 : 00000005;
1436 : 0000000a;
1437 : 00000013;
1438 : 0000000f;
1439 : 00000000;
1440 : fffffffc;
1441 : 0000000a;
1442 : fffffffb;
1443 : 00000003;
1444 : 00000004;
1445 : 0000000f;
1446 : 00000005;
1447 : 00000005;
1448 : fffffffb;
1449 : ffffffee;
1450 : 00000000;
1451 : 0000000f;
1452 : 0000000f;
1453 : 00000018;
1454 : 00000007;
1455 : 00000011;
1456 : 00000018;
1457 : fffffff7;
1458 : 00000005;
1459 : 00000000;
1460 : 00000004;
1461 : 00000005;
1462 : 00000000;
1463 : 00000000;
1464 : fffffff7;
1465 : 00000013;
1466 : 0000000a;
1467 : fffffffb;
1468 : fffffffc;
1469 : 00000009;
1470 : fffffffb;
1471 : 00000008;
1472 : 00000000;
1473 : fffffff2;
1474 : fffffff7;
1475 : 00000000;
1476 : 00000000;
1477 : 0000000f;
1478 : 00000009;
1479 : 00000000;
1480 : fffffffb;
1481 : fffffffc;
1482 : fffffff3;
1483 : 00000005;
1484 : 00000000;
1485 : 0000000f;
1486 : 00000001;
1487 : ffffffe7;
1488 : 00000005;
1489 : 00000002;
1490 : 0000000e;
1491 : 00000005;
1492 : 0000000e;
1493 : fffffffb;
1494 : fffffff1;
1495 : fffffff1;
1496 : 00000001;
1497 : 0000000e;
1498 : 00000001;
1499 : 00000000;
1500 : 00000005;
1501 : 00000005;
1502 : 0000000a;
1503 : fffffff6;
1504 : 00000005;
1505 : 00000000;
1506 : fffffff3;
1507 : fffffff2;
1508 : 00000000;
1509 : 00000005;
1510 : 00000004;
1511 : fffffffb;
1512 : fffffffb;
1513 : 00000005;
1514 : 0000000a;
1515 : 00000001;
1516 : 00000002;
1517 : ffffffed;
1518 : 00000005;
1519 : fffffffb;
1520 : fffffff8;
1521 : 00000000;
1522 : 00000007;
1523 : fffffffc;
1524 : fffffff2;
1525 : 0000000d;
1526 : 0000000f;
1527 : 0000001d;
1528 : 00000005;
1529 : 00000000;
1530 : fffffff6;
1531 : 00000000;
1532 : fffffff2;
1533 : 00000000;
1534 : 00000002;
1535 : 0000000a;
1536 : 00000008;
1537 : 00000000;
1538 : 00000000;
1539 : fffffff7;
1540 : 00000005;
1541 : 00000005;
1542 : 0000001d;
1543 : fffffffc;
1544 : 0000000a;
1545 : fffffff9;
1546 : 00000005;
1547 : 0000000a;
1548 : 00000000;
1549 : 00000005;
1550 : fffffffd;
1551 : fffffff1;
1552 : 0000000a;
1553 : fffffff2;
1554 : 00000005;
1555 : 0000000a;
1556 : fffffff9;
1557 : fffffffe;
1558 : 00000000;
1559 : 0000000f;
1560 : 0000000a;
1561 : 00000013;
1562 : 0000000a;
1563 : 0000000f;
1564 : fffffffd;
1565 : 00000013;
1566 : 00000005;
1567 : fffffffb;
1568 : 00000000;
1569 : 00000000;
1570 : 0000000a;
1571 : 0000000a;
1572 : fffffffc;
1573 : fffffffe;
1574 : 00000000;
1575 : 00000003;
1576 : fffffff6;
1577 : 00000005;
1578 : 00000000;
1579 : 00000003;
1580 : fffffffb;
1581 : 00000008;
1582 : 00000005;
1583 : 00000005;
1584 : fffffff8;
1585 : 00000000;
1586 : 0000000a;
1587 : 00000003;
1588 : 0000000a;
1589 : 0000000a;
1590 : 00000000;
1591 : fffffffb;
1592 : 00000000;
1593 : 00000005;
1594 : 00000000;
1595 : 00000003;
1596 : 00000005;
1597 : 00000000;
1598 : 00000005;
1599 : 0000000e;
1600 : 00000000;
1601 : fffffff6;
1602 : fffffff6;
1603 : fffffffb;
1604 : 00000000;
1605 : 00000005;
1606 : fffffff7;
1607 : 00000000;
1608 : 0000000a;
1609 : 0000000a;
1610 : 00000000;
1611 : fffffffc;
1612 : fffffff8;
1613 : 00000005;
1614 : fffffff6;
1615 : 0000000e;
1616 : fffffffe;
1617 : fffffff8;
1618 : fffffffb;
1619 : fffffffc;
1620 : 0000000a;
1621 : fffffff8;
1622 : fffffffb;
1623 : 00000013;
1624 : fffffff7;
1625 : 00000000;
1626 : fffffff6;
1627 : 00000005;
1628 : 00000008;
1629 : 00000005;
1630 : fffffff3;
1631 : fffffffb;
1632 : 00000005;
1633 : 00000000;
1634 : 0000000f;
1635 : 00000003;
1636 : 00000000;
1637 : fffffffb;
1638 : 00000000;
1639 : 00000000;
1640 : 00000014;
1641 : fffffffc;
1642 : fffffff3;
1643 : 00000005;
1644 : 00000014;
1645 : fffffff8;
1646 : fffffffe;
1647 : fffffffb;
1648 : fffffff8;
1649 : 0000000f;
1650 : 00000005;
1651 : fffffff8;
1652 : 00000000;
1653 : 00000003;
1654 : 00000000;
1655 : 00000000;
1656 : 00000012;
1657 : ffffffed;
1658 : 00000005;
1659 : 00000005;
1660 : fffffff7;
1661 : fffffffb;
1662 : 00000000;
1663 : 00000002;
1664 : fffffff8;
1665 : 0000000a;
1666 : 00000005;
1667 : 00000000;
1668 : 00000005;
1669 : 0000000a;
1670 : 00000005;
1671 : fffffff8;
1672 : 00000000;
1673 : 00000000;
1674 : 00000005;
1675 : fffffffb;
1676 : fffffff6;
1677 : fffffffb;
1678 : fffffff2;
1679 : 00000000;
1680 : fffffffc;
1681 : 00000000;
1682 : 00000000;
1683 : 00000000;
1684 : 00000000;
1685 : 00000000;
1686 : fffffffd;
1687 : 0000000f;
1688 : 0000000f;
1689 : 00000005;
1690 : 00000000;
1691 : fffffffc;
1692 : 00000014;
1693 : 00000000;
1694 : 00000005;
1695 : 00000020;
1696 : 00000005;
1697 : 0000000a;
1698 : fffffff6;
1699 : 0000000a;
1700 : 00000000;
1701 : 00000004;
1702 : 0000000a;
1703 : 00000000;
1704 : fffffff7;
1705 : 00000000;
1706 : fffffff4;
1707 : 0000000f;
1708 : 00000003;
1709 : 00000006;
1710 : 00000005;
1711 : 0000000a;
1712 : 00000005;
1713 : 00000005;
1714 : 0000000f;
1715 : 0000000a;
1716 : fffffffb;
1717 : fffffffd;
1718 : 00000005;
1719 : fffffff8;
1720 : 00000004;
1721 : fffffff6;
1722 : 0000000a;
1723 : 00000000;
1724 : 00000000;
1725 : 00000005;
1726 : 00000013;
1727 : 0000000f;
1728 : 0000000e;
1729 : 0000000f;
1730 : 00000002;
1731 : 00000005;
1732 : 00000004;
1733 : 0000000e;
1734 : 00000001;
1735 : 0000000b;
1736 : fffffffb;
1737 : 0000000f;
1738 : 00000005;
1739 : fffffffb;
1740 : 00000005;
1741 : 0000000e;
1742 : 00000001;
1743 : fffffff1;
1744 : 0000000a;
1745 : 00000000;
1746 : 0000000b;
1747 : 0000000e;
1748 : 00000000;
1749 : 00000005;
1750 : 00000000;
1751 : 00000013;
1752 : 00000000;
1753 : fffffff6;
1754 : fffffff7;
1755 : 0000000e;
1756 : fffffffb;
1757 : fffffffb;
1758 : 00000005;
1759 : fffffff2;
1760 : fffffff6;
1761 : 00000013;
1762 : 0000001e;
1763 : 00000000;
1764 : 00000000;
1765 : 00000005;
1766 : 00000005;
1767 : ffffffec;
1768 : 0000000a;
1769 : 00000005;
1770 : 00000000;
1771 : 00000014;
1772 : 00000000;
1773 : 00000013;
1774 : 0000000a;
1775 : fffffff8;
1776 : 0000001d;
1777 : 00000000;
1778 : 00000001;
1779 : fffffffb;
1780 : 00000009;
1781 : 00000005;
1782 : 0000000a;
1783 : 0000000a;
1784 : 00000011;
1785 : 00000008;
1786 : 0000000a;
1787 : fffffff2;
1788 : 0000000f;
1789 : 0000000a;
1790 : fffffffb;
1791 : 00000005;
1792 : 00000005;
1793 : fffffff7;
1794 : 00000005;
1795 : fffffff8;
1796 : 00000005;
1797 : fffffffb;
1798 : 00000002;
1799 : 00000005;
1800 : 00000000;
1801 : 00000005;
1802 : 00000005;
1803 : 00000014;
1804 : 00000005;
1805 : fffffff7;
1806 : 0000000a;
1807 : fffffffb;
1808 : fffffff6;
1809 : 00000002;
1810 : 00000005;
1811 : 00000009;
1812 : 0000000a;
1813 : fffffffd;
1814 : fffffffc;
1815 : fffffffe;
1816 : 00000000;
1817 : fffffffb;
1818 : fffffffb;
1819 : fffffff5;
1820 : 00000005;
1821 : 00000009;
1822 : 00000018;
1823 : fffffff2;
1824 : fffffffc;
1825 : 00000000;
1826 : 00000000;
1827 : fffffffd;
1828 : 00000005;
1829 : 00000005;
1830 : 00000000;
1831 : ffffffe8;
1832 : fffffff7;
1833 : fffffffb;
1834 : fffffff7;
1835 : 00000006;
1836 : 00000005;
1837 : 00000005;
1838 : 0000000a;
1839 : fffffffb;
1840 : 0000000a;
1841 : 00000005;
1842 : fffffffd;
1843 : 00000004;
1844 : fffffffb;
1845 : 00000003;
1846 : 00000000;
1847 : 00000009;
1848 : 0000000b;
1849 : fffffff1;
1850 : 00000006;
1851 : fffffff0;
1852 : 00000003;
1853 : fffffff2;
1854 : 0000000a;
1855 : 00000005;
1856 : 00000005;
1857 : 0000000a;
1858 : fffffffb;
1859 : fffffff6;
1860 : 00000005;
1861 : 0000000a;
1862 : fffffffc;
1863 : 00000014;
1864 : fffffff2;
1865 : 00000000;
1866 : 0000000f;
1867 : 00000005;
1868 : 00000000;
1869 : 00000008;
1870 : fffffff8;
1871 : 00000000;
1872 : 00000014;
1873 : fffffff7;
1874 : 0000000a;
1875 : 00000002;
1876 : 0000000f;
1877 : 0000000f;
1878 : 00000000;
1879 : 00000005;
1880 : fffffffc;
1881 : 00000000;
1882 : 00000006;
1883 : 00000000;
1884 : 00000000;
1885 : 00000000;
1886 : 00000000;
1887 : 00000000;
1888 : fffffff8;
1889 : 00000000;
1890 : fffffffd;
1891 : 0000000f;
1892 : 00000018;
1893 : fffffff6;
1894 : 00000000;
1895 : 0000000f;
1896 : 00000005;
1897 : 0000000a;
1898 : 0000000f;
1899 : fffffff6;
1900 : fffffff2;
1901 : ffffffe7;
1902 : 00000000;
1903 : 00000005;
1904 : 00000000;
1905 : fffffff7;
1906 : fffffff2;
1907 : fffffff6;
1908 : 00000014;
1909 : 0000000a;
1910 : 00000000;
1911 : fffffffb;
1912 : fffffffb;
1913 : 00000005;
1914 : fffffffb;
1915 : 00000000;
1916 : 00000005;
1917 : 00000003;
1918 : fffffffb;
1919 : 00000000;
1920 : 00000002;
1921 : fffffffb;
1922 : 0000000f;
1923 : 0000000f;
1924 : 00000004;
1925 : fffffff8;
1926 : 00000013;
1927 : fffffffc;
1928 : 0000000a;
1929 : 00000001;
1930 : 00000005;
1931 : 0000000a;
1932 : fffffffb;
1933 : 00000003;
1934 : 00000008;
1935 : 0000000e;
1936 : 0000000e;
1937 : fffffff3;
1938 : 00000018;
1939 : fffffff3;
1940 : 00000000;
1941 : 00000001;
1942 : 0000000a;
1943 : 00000005;
1944 : 00000001;
1945 : 00000000;
1946 : 00000000;
1947 : 0000000a;
1948 : 00000009;
1949 : 00000005;
1950 : 0000000a;
1951 : 00000000;
1952 : 00000000;
1953 : 00000000;
1954 : 00000000;
1955 : 00000013;
1956 : 00000005;
1957 : 0000000a;
1958 : 00000003;
1959 : 00000000;
1960 : 00000005;
1961 : fffffff2;
1962 : 0000000a;
1963 : fffffffb;
1964 : 00000014;
1965 : 00000003;
1966 : 00000013;
1967 : 00000003;
1968 : 0000000f;
1969 : 0000000a;
1970 : 00000005;
1971 : fffffffc;
1972 : 00000009;
1973 : 00000013;
1974 : 00000005;
1975 : fffffff6;
1976 : fffffffd;
1977 : 00000005;
1978 : fffffff2;
1979 : 00000002;
1980 : fffffffc;
1981 : 00000005;
1982 : 0000000a;
1983 : fffffffb;
1984 : 00000002;
1985 : 00000000;
1986 : 00000000;
1987 : fffffffb;
1988 : 00000000;
1989 : 00000001;
1990 : fffffffc;
1991 : 0000001d;
1992 : 0000000f;
1993 : fffffff2;
1994 : fffffffc;
1995 : fffffff7;
1996 : fffffff1;
1997 : 0000000f;
1998 : 00000006;
1999 : fffffff1;
2000 : fffffff6;
2001 : 0000000a;
2002 : fffffff9;
2003 : 00000000;
2004 : 00000017;
2005 : 00000005;
2006 : fffffff7;
2007 : 00000005;
2008 : 0000000a;
2009 : fffffff2;
2010 : 00000003;
2011 : 00000000;
2012 : 00000005;
2013 : 0000000a;
2014 : 0000000f;
2015 : fffffffb;
2016 : 0000000a;
2017 : 00000003;
2018 : 00000004;
2019 : fffffff1;
2020 : 00000005;
2021 : 00000000;
2022 : 0000000f;
2023 : 00000005;
2024 : 00000000;
2025 : fffffffc;
2026 : 0000000f;
2027 : 00000019;
2028 : 0000000a;
2029 : fffffffb;
2030 : 0000000a;
2031 : 00000000;
2032 : 00000018;
2033 : 0000000f;
2034 : 0000000a;
2035 : 00000002;
2036 : fffffff1;
2037 : 00000000;
2038 : fffffff2;
2039 : 00000005;
2040 : 0000000b;
2041 : fffffff2;
2042 : fffffff7;
2043 : 00000009;
2044 : 00000003;
2045 : 00000000;
2046 : 00000005;
2047 : fffffff7;
END;
