WIDTH = 32;
DEPTH = 320;

ADDRESS_RADIX = DEC;
DATA_RADIX = HEX;

CONTENT BEGIN
0 : 00000000;
1 : 00000013;
2 : fffffffb;
3 : fffffffe;
4 : ffffffe3;
5 : 00000000;
6 : ffffffe3;
7 : fffffffb;
8 : 00000004;
9 : fffffff1;
10 : 00000005;
11 : fffffff1;
12 : 00000001;
13 : 00000000;
14 : fffffff7;
15 : 00000000;
16 : 0000000e;
17 : fffffff2;
18 : fffffffc;
19 : 00000013;
20 : fffffffc;
21 : 00000008;
22 : fffffffe;
23 : 00000005;
24 : fffffff1;
25 : ffffffef;
26 : fffffff2;
27 : fffffff2;
28 : 0000000b;
29 : fffffffc;
30 : 00000012;
31 : fffffffd;
32 : 00000005;
33 : ffffffe8;
34 : fffffffd;
35 : 0000000b;
36 : 00000001;
37 : 00000015;
38 : fffffffb;
39 : 00000005;
40 : 00000014;
41 : fffffff7;
42 : 0000000a;
43 : 0000000a;
44 : fffffff3;
45 : fffffff6;
46 : 00000005;
47 : 00000000;
48 : 00000009;
49 : 00000005;
50 : 00000000;
51 : 00000006;
52 : 00000014;
53 : fffffff7;
54 : 00000000;
55 : 00000000;
56 : ffffffff;
57 : 00000006;
58 : ffffffff;
59 : 00000000;
60 : 00000014;
61 : fffffffe;
62 : fffffff3;
63 : 00000000;
64 : 0000000c;
65 : ffffffff;
66 : 00000008;
67 : 00000006;
68 : 00000015;
69 : 00000005;
70 : fffffff6;
71 : 00000010;
72 : fffffff9;
73 : 0000000b;
74 : fffffff8;
75 : 00000008;
76 : 00000000;
77 : fffffffb;
78 : fffffff7;
79 : 00000009;
80 : fffffff7;
81 : 00000013;
82 : 0000000b;
83 : 00000013;
84 : 00000001;
85 : 0000000b;
86 : ffffffed;
87 : 00000012;
88 : ffffffe5;
89 : 00000000;
90 : fffffff7;
91 : fffffff8;
92 : 00000000;
93 : 00000000;
94 : fffffff8;
95 : 0000000b;
96 : ffffffe4;
97 : 00000006;
98 : fffffff1;
99 : 00000004;
100 : fffffff2;
101 : 00000005;
102 : 00000005;
103 : fffffff2;
104 : 00000005;
105 : fffffff1;
106 : 0000000a;
107 : fffffff6;
108 : fffffff6;
109 : ffffffec;
110 : ffffffee;
111 : fffffffd;
112 : 00000020;
113 : 00000005;
114 : fffffff7;
115 : 00000004;
116 : fffffffe;
117 : fffffffb;
118 : fffffffb;
119 : fffffffc;
120 : 00000005;
121 : ffffffe8;
122 : 00000008;
123 : ffffffed;
124 : 00000005;
125 : 00000005;
126 : 00000006;
127 : 00000016;
128 : fffffffb;
129 : fffffff8;
130 : 0000000e;
131 : fffffff5;
132 : 00000009;
133 : 00000013;
134 : fffffff3;
135 : fffffffc;
136 : 0000000a;
137 : 0000000a;
138 : 00000006;
139 : 00000018;
140 : 00000005;
141 : 0000000a;
142 : fffffff7;
143 : 00000003;
144 : 00000002;
145 : 0000000f;
146 : fffffffb;
147 : 00000005;
148 : 0000000e;
149 : fffffffc;
150 : 0000000b;
151 : fffffff2;
152 : 00000009;
153 : ffffffed;
154 : 00000005;
155 : 00000002;
156 : 0000000a;
157 : ffffffed;
158 : fffffffb;
159 : fffffffb;
160 : 00000013;
161 : fffffffc;
162 : fffffffb;
163 : fffffff8;
164 : 00000003;
165 : 00000003;
166 : 00000005;
167 : fffffff3;
168 : fffffffb;
169 : 00000009;
170 : 00000013;
171 : fffffffb;
172 : 0000000a;
173 : 00000005;
174 : 0000000e;
175 : 00000010;
176 : 0000000a;
177 : fffffffc;
178 : 0000000a;
179 : 00000005;
180 : fffffffc;
181 : 00000005;
182 : fffffff3;
183 : 0000001d;
184 : 00000005;
185 : 00000003;
186 : 00000008;
187 : 00000010;
188 : 00000019;
189 : 00000000;
190 : fffffffb;
191 : 00000018;
192 : fffffff8;
193 : 00000005;
194 : 0000001b;
195 : 0000000e;
196 : 0000000b;
197 : fffffffc;
198 : 00000002;
199 : 00000006;
200 : 0000000b;
201 : fffffff3;
202 : 0000000f;
203 : 00000005;
204 : 00000010;
205 : 00000003;
206 : 0000000f;
207 : 00000007;
208 : 00000007;
209 : 0000000a;
210 : fffffff8;
211 : 00000005;
212 : fffffff7;
213 : 0000000f;
214 : fffffff8;
215 : 00000018;
216 : 0000000e;
217 : 0000000a;
218 : 00000006;
219 : fffffffb;
220 : ffffffe0;
221 : fffffffc;
222 : fffffffc;
223 : 00000000;
224 : 00000004;
225 : ffffffff;
226 : 00000000;
227 : 0000000e;
228 : 00000005;
229 : fffffff4;
230 : 0000000b;
231 : 00000001;
232 : fffffff7;
233 : fffffffc;
234 : fffffffc;
235 : 0000000c;
236 : 00000011;
237 : 0000000c;
238 : fffffffc;
239 : 0000000e;
240 : ffffffe0;
241 : fffffffe;
242 : ffffffe9;
243 : ffffffee;
244 : 00000014;
245 : 0000000e;
246 : 0000000d;
247 : 0000000b;
248 : fffffff1;
249 : 00000019;
250 : fffffff7;
251 : fffffffd;
252 : fffffff6;
253 : 0000000e;
254 : 0000000a;
255 : fffffffe;
256 : 0000000d;
257 : 00000000;
258 : 0000000a;
259 : 00000005;
260 : ffffffef;
261 : 00000005;
262 : fffffff7;
263 : fffffffd;
264 : fffffffb;
265 : 00000014;
266 : fffffffb;
267 : 00000000;
268 : fffffff8;
269 : fffffff8;
270 : 0000000a;
271 : 00000006;
272 : 00000008;
273 : 00000005;
274 : 00000000;
275 : fffffff9;
276 : 00000000;
277 : fffffffc;
278 : fffffffc;
279 : 00000007;
280 : 00000017;
281 : fffffff3;
282 : 00000003;
283 : fffffff8;
284 : fffffffb;
285 : fffffffb;
286 : fffffff1;
287 : 00000001;
288 : 00000001;
289 : fffffffa;
290 : 0000000b;
291 : fffffffc;
292 : 00000011;
293 : 00000003;
294 : 0000000b;
295 : 00000005;
296 : 00000008;
297 : 00000014;
298 : fffffff7;
299 : 00000015;
300 : 00000000;
301 : 00000003;
302 : 00000005;
303 : 00000008;
304 : fffffffd;
305 : fffffff6;
306 : 00000007;
307 : ffffffeb;
308 : fffffff7;
309 : ffffffff;
310 : fffffffc;
311 : 00000014;
312 : fffffff2;
313 : 00000005;
314 : 00000000;
315 : 0000001d;
316 : 00000005;
317 : 00000014;
318 : fffffff2;
319 : 0000001b;
END;
