WIDTH = 32;
DEPTH = 4096;

ADDRESS_RADIX = DEC;
DATA_RADIX = HEX;

CONTENT BEGIN
0 : 00000000;
1 : fffffff6;
2 : 00000005;
3 : 00000004;
4 : 0000000f;
5 : 00000005;
6 : 00000005;
7 : 00000000;
8 : 00000000;
9 : 00000001;
10 : fffffffd;
11 : fffffff7;
12 : fffffff6;
13 : 00000000;
14 : fffffff1;
15 : 0000000a;
16 : fffffff7;
17 : 00000000;
18 : fffffff1;
19 : 0000000f;
20 : fffffff8;
21 : 00000009;
22 : 00000000;
23 : 00000011;
24 : 00000000;
25 : 00000019;
26 : 00000009;
27 : 0000000c;
28 : fffffffb;
29 : 00000005;
30 : 00000000;
31 : 0000000f;
32 : 00000000;
33 : fffffffc;
34 : fffffff6;
35 : 0000000a;
36 : 00000014;
37 : 00000000;
38 : fffffffb;
39 : fffffff1;
40 : 0000000a;
41 : 00000000;
42 : 00000005;
43 : 00000013;
44 : 00000005;
45 : 00000000;
46 : 00000005;
47 : 00000008;
48 : 0000000a;
49 : 00000008;
50 : 00000000;
51 : 0000000f;
52 : 0000000a;
53 : fffffffd;
54 : 00000002;
55 : 00000005;
56 : fffffffb;
57 : fffffff8;
58 : 00000004;
59 : fffffff9;
60 : 00000000;
61 : ffffffed;
62 : 00000005;
63 : fffffffb;
64 : fffffff1;
65 : 00000000;
66 : fffffff1;
67 : 0000000b;
68 : 0000000c;
69 : 00000001;
70 : 00000000;
71 : fffffff1;
72 : fffffff6;
73 : 00000008;
74 : fffffff6;
75 : 00000005;
76 : fffffff7;
77 : ffffffec;
78 : 00000000;
79 : fffffffb;
80 : 00000005;
81 : ffffffec;
82 : fffffffb;
83 : 00000002;
84 : 00000005;
85 : 00000005;
86 : 00000000;
87 : fffffffe;
88 : 00000009;
89 : ffffffef;
90 : 00000018;
91 : 0000000c;
92 : 00000005;
93 : fffffffb;
94 : 00000009;
95 : 00000000;
96 : 00000003;
97 : fffffffb;
98 : fffffff5;
99 : 00000005;
100 : fffffffb;
101 : 00000016;
102 : 00000005;
103 : 0000000f;
104 : 00000005;
105 : 0000000a;
106 : 00000000;
107 : fffffff6;
108 : fffffffd;
109 : fffffff1;
110 : 00000014;
111 : 00000005;
112 : fffffffb;
113 : 00000000;
114 : 00000009;
115 : 00000002;
116 : ffffffff;
117 : fffffffb;
118 : 00000014;
119 : ffffffed;
120 : 0000000f;
121 : 00000014;
122 : 00000001;
123 : 0000000f;
124 : fffffff6;
125 : fffffff1;
126 : fffffff1;
127 : 00000000;
128 : 00000000;
129 : fffffffb;
130 : fffffff1;
131 : fffffff7;
132 : 00000003;
133 : fffffff2;
134 : fffffffb;
135 : fffffffc;
136 : fffffffb;
137 : 00000005;
138 : 00000004;
139 : 00000005;
140 : 0000000b;
141 : 00000005;
142 : fffffff6;
143 : 00000014;
144 : 00000005;
145 : fffffff6;
146 : 00000013;
147 : 0000000f;
148 : fffffff6;
149 : 0000000e;
150 : fffffff7;
151 : 00000019;
152 : ffffffff;
153 : 00000000;
154 : fffffff6;
155 : 00000005;
156 : 00000004;
157 : 0000000e;
158 : fffffffe;
159 : fffffff8;
160 : fffffffb;
161 : fffffffc;
162 : fffffff7;
163 : 0000000a;
164 : fffffff7;
165 : fffffff5;
166 : ffffffec;
167 : 0000000f;
168 : fffffffb;
169 : fffffff8;
170 : fffffffb;
171 : 00000005;
172 : fffffffd;
173 : fffffffb;
174 : fffffffb;
175 : 00000005;
176 : fffffff6;
177 : 00000013;
178 : ffffffff;
179 : fffffff9;
180 : 0000000a;
181 : 00000005;
182 : fffffff6;
183 : 0000000f;
184 : fffffff3;
185 : fffffffb;
186 : 00000005;
187 : fffffff9;
188 : fffffff6;
189 : fffffff6;
190 : 00000000;
191 : fffffff6;
192 : 00000000;
193 : 00000019;
194 : 00000007;
195 : 0000000f;
196 : 00000005;
197 : 0000000a;
198 : 0000000a;
199 : 00000005;
200 : 0000001a;
201 : 0000000b;
202 : fffffff6;
203 : 00000011;
204 : 00000008;
205 : 00000005;
206 : fffffffb;
207 : 00000005;
208 : 0000000d;
209 : 00000005;
210 : 00000000;
211 : fffffffd;
212 : fffffff1;
213 : 00000005;
214 : fffffffb;
215 : 00000005;
216 : 00000000;
217 : 0000000f;
218 : fffffff6;
219 : 00000000;
220 : 00000000;
221 : fffffffb;
222 : 0000000b;
223 : 00000003;
224 : fffffffc;
225 : 00000000;
226 : fffffff8;
227 : fffffffb;
228 : 0000000a;
229 : fffffff6;
230 : 00000005;
231 : fffffff8;
232 : 00000000;
233 : 00000005;
234 : 00000005;
235 : 0000000f;
236 : 00000005;
237 : fffffffc;
238 : 00000010;
239 : 0000000b;
240 : 00000005;
241 : 00000015;
242 : 00000000;
243 : 00000005;
244 : 0000000f;
245 : fffffffe;
246 : fffffffb;
247 : 00000009;
248 : 0000000a;
249 : 00000000;
250 : 00000005;
251 : fffffff9;
252 : 00000008;
253 : 00000000;
254 : 00000009;
255 : 00000000;
256 : fffffffb;
257 : 00000000;
258 : 00000000;
259 : 00000005;
260 : 0000001e;
261 : 00000005;
262 : fffffffb;
263 : fffffffb;
264 : fffffff6;
265 : 00000015;
266 : 00000008;
267 : 00000000;
268 : 0000000f;
269 : 00000000;
270 : 00000004;
271 : 00000005;
272 : 00000003;
273 : fffffff6;
274 : fffffffb;
275 : 00000001;
276 : 0000000e;
277 : fffffff7;
278 : 00000005;
279 : fffffffc;
280 : 00000005;
281 : fffffff3;
282 : fffffff1;
283 : ffffffff;
284 : 00000005;
285 : 0000000f;
286 : 00000005;
287 : fffffffb;
288 : 0000000f;
289 : 00000000;
290 : 00000000;
291 : 00000003;
292 : 00000000;
293 : fffffffb;
294 : 00000000;
295 : 00000000;
296 : fffffffd;
297 : 00000000;
298 : fffffff0;
299 : fffffff7;
300 : 0000000a;
301 : fffffff9;
302 : 00000003;
303 : fffffffb;
304 : fffffff6;
305 : fffffffe;
306 : 00000005;
307 : 0000000b;
308 : 00000005;
309 : fffffff9;
310 : fffffffb;
311 : fffffffb;
312 : 00000005;
313 : fffffff2;
314 : fffffffb;
315 : fffffff7;
316 : fffffffb;
317 : 00000003;
318 : 00000004;
319 : fffffff6;
320 : 00000000;
321 : 0000000a;
322 : 0000000a;
323 : 0000000b;
324 : 00000005;
325 : 00000005;
326 : 0000000a;
327 : 00000005;
328 : fffffffd;
329 : 0000000f;
330 : 00000005;
331 : 00000013;
332 : 0000000f;
333 : fffffffb;
334 : 00000005;
335 : 00000000;
336 : fffffffe;
337 : fffffff6;
338 : fffffff6;
339 : fffffff6;
340 : fffffffb;
341 : fffffff7;
342 : 00000005;
343 : 0000000a;
344 : fffffff1;
345 : fffffffb;
346 : 00000000;
347 : fffffffb;
348 : fffffffb;
349 : fffffffb;
350 : 0000000a;
351 : 0000000b;
352 : 0000000a;
353 : fffffffe;
354 : 0000000a;
355 : fffffffb;
356 : 0000000f;
357 : 0000000a;
358 : fffffffb;
359 : fffffffb;
360 : fffffffb;
361 : 00000000;
362 : 00000000;
363 : fffffffb;
364 : fffffffb;
365 : fffffffb;
366 : fffffffc;
367 : 0000000b;
368 : fffffff8;
369 : 0000000f;
370 : 00000000;
371 : ffffffed;
372 : fffffff6;
373 : 0000000f;
374 : 00000000;
375 : 00000013;
376 : 00000005;
377 : 0000000a;
378 : 0000000a;
379 : 0000000e;
380 : 00000005;
381 : 00000005;
382 : 00000003;
383 : fffffff6;
384 : 0000000a;
385 : fffffffd;
386 : 00000009;
387 : 00000000;
388 : fffffffd;
389 : 0000000a;
390 : fffffffb;
391 : fffffffe;
392 : 00000000;
393 : 00000008;
394 : 00000009;
395 : 0000000f;
396 : 00000000;
397 : 00000005;
398 : 00000005;
399 : fffffffc;
400 : 00000005;
401 : 0000000a;
402 : 0000000b;
403 : fffffff6;
404 : 00000005;
405 : 00000005;
406 : fffffff6;
407 : fffffff8;
408 : 0000000f;
409 : 00000000;
410 : 00000000;
411 : fffffffb;
412 : 00000000;
413 : fffffff6;
414 : fffffff1;
415 : fffffff9;
416 : 00000019;
417 : fffffffb;
418 : 0000000a;
419 : 0000000b;
420 : 00000008;
421 : 00000009;
422 : fffffffb;
423 : fffffff4;
424 : 00000005;
425 : 00000005;
426 : 00000001;
427 : 00000015;
428 : 0000000a;
429 : 0000000a;
430 : 00000005;
431 : 0000000f;
432 : fffffff6;
433 : fffffffb;
434 : 00000005;
435 : fffffffb;
436 : 00000005;
437 : ffffffec;
438 : fffffffb;
439 : fffffff6;
440 : fffffffb;
441 : fffffff6;
442 : fffffffc;
443 : 00000005;
444 : 00000005;
445 : fffffffd;
446 : 00000000;
447 : 00000019;
448 : fffffff6;
449 : fffffff6;
450 : fffffffe;
451 : 0000000b;
452 : 00000007;
453 : 00000000;
454 : fffffffc;
455 : fffffff6;
456 : 00000005;
457 : 00000000;
458 : 00000000;
459 : 0000000f;
460 : 00000000;
461 : fffffff1;
462 : 0000000e;
463 : fffffff7;
464 : 00000005;
465 : 00000007;
466 : 00000003;
467 : 0000000e;
468 : 00000005;
469 : 00000005;
470 : 00000003;
471 : fffffffa;
472 : 00000002;
473 : fffffffa;
474 : 00000002;
475 : 00000005;
476 : fffffffb;
477 : fffffff0;
478 : 00000000;
479 : fffffff6;
480 : fffffffe;
481 : fffffff2;
482 : fffffff1;
483 : 00000001;
484 : 0000000f;
485 : fffffff1;
486 : fffffff6;
487 : 00000014;
488 : 0000000a;
489 : 00000000;
490 : 00000000;
491 : 00000005;
492 : fffffff6;
493 : 00000009;
494 : fffffffb;
495 : 00000000;
496 : 00000005;
497 : fffffff6;
498 : fffffffb;
499 : fffffffb;
500 : fffffffb;
501 : 00000000;
502 : 00000011;
503 : 00000000;
504 : fffffff2;
505 : fffffffb;
506 : 00000005;
507 : 00000005;
508 : 00000005;
509 : 00000005;
510 : fffffff1;
511 : 00000000;
512 : 0000000e;
513 : fffffffb;
514 : fffffffe;
515 : 00000000;
516 : 00000003;
517 : fffffffb;
518 : fffffff6;
519 : 00000000;
520 : 00000014;
521 : 0000000b;
522 : 00000005;
523 : 00000000;
524 : 00000005;
525 : 00000005;
526 : fffffffb;
527 : 00000005;
528 : fffffff1;
529 : fffffffb;
530 : fffffff6;
531 : fffffff2;
532 : fffffffb;
533 : 00000000;
534 : fffffffb;
535 : 00000005;
536 : 00000014;
537 : fffffff8;
538 : 00000002;
539 : 00000000;
540 : fffffffb;
541 : fffffff5;
542 : fffffff2;
543 : 00000005;
544 : ffffffff;
545 : 0000000f;
546 : 0000000e;
547 : fffffffb;
548 : 00000000;
549 : 00000005;
550 : 00000004;
551 : fffffff1;
552 : 00000000;
553 : 00000000;
554 : 0000000a;
555 : 00000014;
556 : fffffff1;
557 : fffffff6;
558 : fffffffb;
559 : fffffffb;
560 : 0000000b;
561 : 0000000a;
562 : 00000014;
563 : fffffffc;
564 : 00000003;
565 : ffffffec;
566 : 00000008;
567 : fffffff1;
568 : fffffffb;
569 : 00000003;
570 : 00000005;
571 : fffffff7;
572 : 00000008;
573 : 00000000;
574 : fffffffb;
575 : fffffffb;
576 : 00000005;
577 : 00000014;
578 : 0000000a;
579 : 0000000a;
580 : 0000000f;
581 : 00000000;
582 : fffffffb;
583 : 0000000b;
584 : 00000005;
585 : 00000009;
586 : 00000000;
587 : 00000000;
588 : ffffffe7;
589 : 0000000a;
590 : fffffffe;
591 : 00000000;
592 : 0000000a;
593 : fffffff1;
594 : fffffff4;
595 : 0000000a;
596 : 00000011;
597 : 00000005;
598 : 00000005;
599 : 00000000;
600 : 0000000f;
601 : 00000005;
602 : 00000000;
603 : 00000005;
604 : fffffff6;
605 : 00000005;
606 : 00000000;
607 : 00000000;
608 : 00000014;
609 : fffffffb;
610 : fffffff6;
611 : 00000005;
612 : fffffffb;
613 : 00000005;
614 : 00000014;
615 : fffffff1;
616 : 00000000;
617 : 00000000;
618 : 0000000a;
619 : 00000000;
620 : fffffffb;
621 : fffffffb;
622 : 00000000;
623 : 00000010;
624 : 00000004;
625 : fffffff1;
626 : 00000005;
627 : 00000000;
628 : 00000000;
629 : 0000000f;
630 : 00000000;
631 : fffffffc;
632 : 00000005;
633 : fffffffe;
634 : fffffff6;
635 : 0000000a;
636 : 00000018;
637 : fffffffe;
638 : fffffff6;
639 : 0000000a;
640 : 00000005;
641 : fffffffb;
642 : ffffffec;
643 : fffffffb;
644 : 00000005;
645 : 00000005;
646 : 0000000b;
647 : 00000000;
648 : fffffffb;
649 : fffffff9;
650 : 00000005;
651 : 00000005;
652 : 00000000;
653 : fffffffb;
654 : ffffffff;
655 : 00000005;
656 : fffffff6;
657 : fffffffb;
658 : 00000003;
659 : 00000005;
660 : 0000000a;
661 : fffffffb;
662 : 00000014;
663 : 00000001;
664 : fffffff7;
665 : fffffffe;
666 : 0000000b;
667 : 00000004;
668 : ffffffed;
669 : 00000016;
670 : 00000000;
671 : fffffffe;
672 : 00000000;
673 : fffffff8;
674 : 0000000a;
675 : 0000000a;
676 : fffffff6;
677 : 00000000;
678 : fffffffb;
679 : fffffff3;
680 : fffffffb;
681 : 0000000a;
682 : fffffffb;
683 : fffffffb;
684 : 00000003;
685 : 00000000;
686 : fffffff6;
687 : fffffffb;
688 : 00000005;
689 : fffffffb;
690 : 00000005;
691 : 00000004;
692 : 00000009;
693 : fffffff6;
694 : 00000008;
695 : 0000000a;
696 : 0000000a;
697 : fffffffb;
698 : 0000000f;
699 : fffffffb;
700 : 0000000f;
701 : 00000000;
702 : 00000005;
703 : 00000005;
704 : 00000005;
705 : 00000002;
706 : 00000005;
707 : 00000000;
708 : fffffffd;
709 : fffffffe;
710 : 00000000;
711 : 00000000;
712 : 00000000;
713 : 00000005;
714 : fffffffb;
715 : 0000000b;
716 : fffffff7;
717 : 00000008;
718 : 00000005;
719 : 0000000f;
720 : 00000000;
721 : fffffffb;
722 : 00000000;
723 : fffffff1;
724 : 00000000;
725 : 00000009;
726 : fffffffb;
727 : 00000005;
728 : fffffffb;
729 : ffffffff;
730 : 00000000;
731 : fffffff6;
732 : 00000000;
733 : fffffff5;
734 : 00000005;
735 : fffffff8;
736 : 00000000;
737 : 0000000a;
738 : fffffff1;
739 : fffffffb;
740 : 00000005;
741 : fffffff5;
742 : 00000004;
743 : 0000000a;
744 : 00000005;
745 : 00000005;
746 : fffffff7;
747 : 00000004;
748 : ffffffec;
749 : 00000000;
750 : fffffffb;
751 : fffffffc;
752 : 0000000c;
753 : fffffff5;
754 : 00000003;
755 : fffffffb;
756 : ffffffff;
757 : 0000000a;
758 : fffffffd;
759 : fffffffb;
760 : fffffffb;
761 : fffffff7;
762 : fffffffb;
763 : 00000008;
764 : fffffff6;
765 : fffffff6;
766 : 0000000c;
767 : 00000000;
768 : fffffff6;
769 : fffffff6;
770 : 00000003;
771 : 00000006;
772 : 00000005;
773 : 00000005;
774 : 0000000e;
775 : 00000013;
776 : fffffff6;
777 : fffffff9;
778 : 00000009;
779 : 00000000;
780 : 00000000;
781 : fffffff1;
782 : 00000000;
783 : 0000000f;
784 : 00000000;
785 : fffffffe;
786 : fffffffe;
787 : 0000000a;
788 : 0000000a;
789 : ffffffff;
790 : 00000005;
791 : 0000000a;
792 : fffffffb;
793 : ffffffed;
794 : fffffff2;
795 : 00000015;
796 : fffffffb;
797 : 00000003;
798 : 00000005;
799 : fffffffd;
800 : 00000004;
801 : fffffff6;
802 : fffffff6;
803 : 00000001;
804 : fffffff6;
805 : 00000002;
806 : fffffffe;
807 : 00000000;
808 : 00000003;
809 : fffffffb;
810 : fffffffd;
811 : 00000005;
812 : 0000000a;
813 : fffffff9;
814 : fffffff8;
815 : fffffffb;
816 : 0000000f;
817 : 00000000;
818 : 00000019;
819 : fffffffd;
820 : fffffffb;
821 : fffffffd;
822 : fffffffb;
823 : 00000002;
824 : 00000000;
825 : 00000005;
826 : 00000003;
827 : 00000005;
828 : 00000000;
829 : 00000019;
830 : 00000015;
831 : fffffff8;
832 : 00000005;
833 : 00000000;
834 : fffffffe;
835 : 0000000b;
836 : fffffffe;
837 : fffffffb;
838 : 00000013;
839 : fffffffb;
840 : 00000005;
841 : 00000000;
842 : 00000008;
843 : 00000004;
844 : 00000000;
845 : 0000000a;
846 : 00000005;
847 : 00000005;
848 : fffffffc;
849 : fffffff6;
850 : fffffffb;
851 : 00000000;
852 : fffffff6;
853 : 00000009;
854 : 00000000;
855 : 00000001;
856 : fffffff6;
857 : fffffffe;
858 : 00000005;
859 : fffffffb;
860 : 00000000;
861 : 00000018;
862 : 0000000a;
863 : 00000010;
864 : fffffffb;
865 : 00000005;
866 : 0000000a;
867 : 00000000;
868 : 00000000;
869 : 00000002;
870 : fffffffb;
871 : fffffffb;
872 : 0000000a;
873 : fffffff2;
874 : 0000000a;
875 : 00000001;
876 : fffffff6;
877 : 00000000;
878 : 00000000;
879 : 0000000a;
880 : 00000003;
881 : fffffff1;
882 : 00000000;
883 : 00000005;
884 : 0000000f;
885 : 00000000;
886 : fffffffd;
887 : 00000005;
888 : fffffff6;
889 : fffffff6;
890 : fffffff2;
891 : fffffff7;
892 : 00000005;
893 : 00000003;
894 : 00000000;
895 : 00000000;
896 : fffffffc;
897 : 0000000c;
898 : fffffff6;
899 : fffffffb;
900 : fffffff5;
901 : 00000010;
902 : fffffff6;
903 : 0000000a;
904 : fffffffb;
905 : 0000000a;
906 : 0000000a;
907 : 0000000a;
908 : 00000005;
909 : 00000004;
910 : fffffffb;
911 : 0000001b;
912 : 00000018;
913 : 0000000e;
914 : 0000000a;
915 : ffffffe7;
916 : fffffff6;
917 : 0000000b;
918 : fffffff6;
919 : fffffffb;
920 : 00000008;
921 : 0000000c;
922 : fffffff2;
923 : 00000005;
924 : 0000000a;
925 : fffffff6;
926 : fffffffe;
927 : fffffffb;
928 : 00000000;
929 : 00000000;
930 : fffffff6;
931 : 00000000;
932 : fffffffb;
933 : 0000000d;
934 : fffffffb;
935 : 0000000a;
936 : 00000004;
937 : 00000000;
938 : 0000000a;
939 : 0000000a;
940 : 00000005;
941 : fffffffb;
942 : 00000000;
943 : fffffffb;
944 : 00000000;
945 : 00000004;
946 : fffffff5;
947 : 00000003;
948 : fffffff6;
949 : 0000000f;
950 : 00000000;
951 : 00000002;
952 : 0000000f;
953 : fffffffb;
954 : 00000005;
955 : 00000001;
956 : fffffff9;
957 : 00000019;
958 : fffffff6;
959 : 00000019;
960 : 00000000;
961 : fffffff6;
962 : ffffffec;
963 : 0000000b;
964 : 00000002;
965 : 00000001;
966 : 00000000;
967 : 00000005;
968 : 00000008;
969 : fffffff8;
970 : 00000005;
971 : fffffffb;
972 : fffffffb;
973 : 00000000;
974 : fffffff6;
975 : 00000000;
976 : fffffffb;
977 : 00000000;
978 : 00000003;
979 : 0000000a;
980 : 0000000a;
981 : ffffffff;
982 : 00000005;
983 : 00000014;
984 : 00000001;
985 : 0000000d;
986 : fffffff6;
987 : ffffffec;
988 : fffffff6;
989 : fffffff0;
990 : fffffffe;
991 : fffffffc;
992 : 0000000a;
993 : 00000003;
994 : fffffffb;
995 : fffffffb;
996 : 00000005;
997 : fffffffb;
998 : 00000005;
999 : 00000000;
1000 : 00000000;
1001 : fffffff8;
1002 : 0000000a;
1003 : fffffffb;
1004 : fffffff2;
1005 : 00000000;
1006 : 00000019;
1007 : 0000000b;
1008 : fffffffb;
1009 : 00000002;
1010 : 0000000f;
1011 : 00000000;
1012 : 00000001;
1013 : fffffffd;
1014 : 00000002;
1015 : 00000003;
1016 : 00000005;
1017 : 00000015;
1018 : fffffff6;
1019 : 00000003;
1020 : fffffff6;
1021 : fffffffe;
1022 : 00000009;
1023 : 0000000f;
1024 : 00000006;
1025 : 00000005;
1026 : 00000000;
1027 : fffffff6;
1028 : 00000007;
1029 : 00000010;
1030 : fffffff6;
1031 : 0000000f;
1032 : fffffff6;
1033 : fffffff6;
1034 : 00000009;
1035 : fffffff8;
1036 : fffffff7;
1037 : 00000000;
1038 : 0000000a;
1039 : 00000005;
1040 : 00000000;
1041 : fffffff6;
1042 : fffffff1;
1043 : 00000008;
1044 : fffffffb;
1045 : 0000000a;
1046 : 0000000d;
1047 : fffffff8;
1048 : 0000000a;
1049 : fffffff2;
1050 : 00000005;
1051 : 00000005;
1052 : fffffffb;
1053 : 00000000;
1054 : fffffff6;
1055 : fffffff2;
1056 : 00000009;
1057 : 00000000;
1058 : 00000000;
1059 : 0000000a;
1060 : 00000000;
1061 : 00000000;
1062 : 00000005;
1063 : fffffff5;
1064 : fffffffb;
1065 : fffffff2;
1066 : 00000008;
1067 : fffffff6;
1068 : fffffff6;
1069 : 00000004;
1070 : 0000000a;
1071 : 0000000b;
1072 : fffffffb;
1073 : 0000000c;
1074 : 00000001;
1075 : fffffffd;
1076 : 00000000;
1077 : 00000000;
1078 : fffffff1;
1079 : 00000005;
1080 : 0000000a;
1081 : fffffffc;
1082 : 0000000a;
1083 : 00000005;
1084 : fffffff1;
1085 : fffffff1;
1086 : 00000000;
1087 : fffffff6;
1088 : 00000000;
1089 : fffffff6;
1090 : 00000000;
1091 : 0000001e;
1092 : 00000005;
1093 : fffffffb;
1094 : 00000000;
1095 : 00000005;
1096 : fffffffb;
1097 : fffffffb;
1098 : 00000005;
1099 : 0000000b;
1100 : ffffffec;
1101 : 00000005;
1102 : 0000000b;
1103 : ffffffe8;
1104 : fffffff7;
1105 : 00000000;
1106 : 00000000;
1107 : 0000000f;
1108 : fffffffb;
1109 : fffffffb;
1110 : 00000005;
1111 : 00000006;
1112 : fffffffc;
1113 : ffffffe7;
1114 : 00000005;
1115 : fffffffe;
1116 : 00000000;
1117 : 00000000;
1118 : 00000011;
1119 : 00000005;
1120 : 0000000a;
1121 : 0000000f;
1122 : 00000005;
1123 : 00000005;
1124 : 00000009;
1125 : fffffff6;
1126 : 0000000f;
1127 : 00000000;
1128 : 00000008;
1129 : 00000000;
1130 : 00000001;
1131 : fffffffb;
1132 : 00000005;
1133 : fffffffb;
1134 : fffffff6;
1135 : 00000005;
1136 : fffffffe;
1137 : 00000000;
1138 : 00000000;
1139 : 00000005;
1140 : 00000000;
1141 : fffffff6;
1142 : 0000000f;
1143 : 00000002;
1144 : fffffffb;
1145 : 00000000;
1146 : 0000000f;
1147 : 00000014;
1148 : fffffffe;
1149 : 00000000;
1150 : 00000000;
1151 : 00000005;
1152 : 00000000;
1153 : fffffffb;
1154 : 0000000a;
1155 : 0000000d;
1156 : 0000000c;
1157 : 00000001;
1158 : 00000000;
1159 : 00000000;
1160 : 0000000a;
1161 : 00000005;
1162 : fffffff6;
1163 : 00000019;
1164 : fffffffb;
1165 : 00000000;
1166 : fffffffb;
1167 : 0000000b;
1168 : fffffff6;
1169 : 00000005;
1170 : fffffffb;
1171 : 0000000f;
1172 : fffffff6;
1173 : 00000005;
1174 : 0000000a;
1175 : fffffffd;
1176 : fffffff2;
1177 : fffffffe;
1178 : fffffff6;
1179 : 0000000a;
1180 : 00000005;
1181 : 00000002;
1182 : 00000019;
1183 : fffffffb;
1184 : fffffff6;
1185 : 0000000e;
1186 : fffffffb;
1187 : 00000000;
1188 : fffffff2;
1189 : 00000000;
1190 : 00000000;
1191 : 0000000a;
1192 : 00000000;
1193 : fffffffb;
1194 : 00000000;
1195 : 00000018;
1196 : ffffffec;
1197 : fffffffb;
1198 : fffffffb;
1199 : fffffffb;
1200 : 00000008;
1201 : fffffffb;
1202 : 00000005;
1203 : 00000003;
1204 : 00000000;
1205 : 00000005;
1206 : fffffff6;
1207 : fffffffb;
1208 : 00000005;
1209 : fffffffb;
1210 : 0000000f;
1211 : fffffff6;
1212 : 00000003;
1213 : fffffffb;
1214 : 0000000e;
1215 : fffffffb;
1216 : fffffff2;
1217 : fffffff1;
1218 : fffffffd;
1219 : ffffffef;
1220 : 00000003;
1221 : fffffff2;
1222 : fffffffb;
1223 : 0000000f;
1224 : 0000000e;
1225 : 00000000;
1226 : fffffff6;
1227 : 0000000a;
1228 : 00000000;
1229 : fffffffb;
1230 : 00000005;
1231 : 00000005;
1232 : fffffffb;
1233 : 0000000a;
1234 : 00000000;
1235 : 00000000;
1236 : fffffffb;
1237 : 0000000b;
1238 : 00000000;
1239 : 00000000;
1240 : 00000005;
1241 : fffffffb;
1242 : ffffffec;
1243 : 0000000a;
1244 : fffffff1;
1245 : fffffffb;
1246 : fffffffb;
1247 : 00000003;
1248 : fffffff9;
1249 : 00000000;
1250 : fffffffb;
1251 : fffffffb;
1252 : fffffff6;
1253 : fffffffb;
1254 : 00000004;
1255 : fffffffb;
1256 : 0000000f;
1257 : 0000000e;
1258 : 0000000f;
1259 : 0000000a;
1260 : 0000000e;
1261 : fffffffb;
1262 : 00000000;
1263 : fffffff7;
1264 : 00000005;
1265 : 00000000;
1266 : 0000000a;
1267 : 00000005;
1268 : 00000005;
1269 : fffffff6;
1270 : 0000000a;
1271 : 00000000;
1272 : fffffff6;
1273 : 00000000;
1274 : 0000000b;
1275 : 00000005;
1276 : fffffffb;
1277 : 00000003;
1278 : 00000000;
1279 : 00000000;
1280 : 00000000;
1281 : 0000000a;
1282 : fffffffb;
1283 : fffffffb;
1284 : fffffffb;
1285 : fffffffb;
1286 : 00000003;
1287 : 00000005;
1288 : fffffffd;
1289 : fffffffc;
1290 : 00000000;
1291 : 0000000a;
1292 : 00000005;
1293 : fffffffb;
1294 : fffffffe;
1295 : ffffffe7;
1296 : 00000013;
1297 : fffffffe;
1298 : 00000000;
1299 : 00000000;
1300 : 00000005;
1301 : 00000001;
1302 : 0000001a;
1303 : 00000005;
1304 : 00000001;
1305 : fffffffb;
1306 : fffffff6;
1307 : 0000000a;
1308 : 0000000f;
1309 : 00000005;
1310 : fffffffc;
1311 : 00000000;
1312 : fffffffb;
1313 : 00000019;
1314 : fffffff6;
1315 : 00000019;
1316 : 0000000a;
1317 : fffffffb;
1318 : 0000000e;
1319 : fffffff6;
1320 : 0000000d;
1321 : fffffffd;
1322 : 00000005;
1323 : 00000005;
1324 : 00000004;
1325 : fffffff1;
1326 : 00000000;
1327 : 00000010;
1328 : fffffffe;
1329 : 0000000a;
1330 : 0000000a;
1331 : fffffffb;
1332 : 00000000;
1333 : 0000000a;
1334 : fffffffb;
1335 : 00000005;
1336 : 0000000f;
1337 : 0000000b;
1338 : fffffff7;
1339 : 00000019;
1340 : 00000000;
1341 : 00000005;
1342 : fffffffe;
1343 : 0000000a;
1344 : 00000005;
1345 : 00000000;
1346 : fffffffd;
1347 : 00000005;
1348 : 00000005;
1349 : 0000000e;
1350 : 00000015;
1351 : 00000000;
1352 : fffffffe;
1353 : fffffffe;
1354 : 00000000;
1355 : 00000005;
1356 : 00000005;
1357 : fffffffb;
1358 : fffffffa;
1359 : fffffffd;
1360 : 0000000e;
1361 : 00000005;
1362 : fffffff4;
1363 : 00000005;
1364 : fffffffb;
1365 : 0000000a;
1366 : 0000000a;
1367 : 0000000f;
1368 : 00000005;
1369 : 00000000;
1370 : fffffff6;
1371 : 00000014;
1372 : 0000000f;
1373 : 00000002;
1374 : 00000000;
1375 : 00000005;
1376 : 00000008;
1377 : fffffff6;
1378 : 00000000;
1379 : 00000000;
1380 : 0000000a;
1381 : fffffff8;
1382 : 00000000;
1383 : 0000000a;
1384 : 00000005;
1385 : fffffffd;
1386 : fffffff2;
1387 : 00000014;
1388 : 00000005;
1389 : fffffffb;
1390 : 0000000a;
1391 : fffffff6;
1392 : 0000000a;
1393 : 00000002;
1394 : 0000000a;
1395 : 00000004;
1396 : fffffff6;
1397 : fffffff6;
1398 : fffffffb;
1399 : fffffff1;
1400 : fffffffd;
1401 : 00000014;
1402 : 00000000;
1403 : 00000005;
1404 : fffffff6;
1405 : 00000014;
1406 : 00000000;
1407 : 00000019;
1408 : 00000009;
1409 : 00000008;
1410 : 00000000;
1411 : 00000005;
1412 : fffffff3;
1413 : 00000001;
1414 : 00000004;
1415 : 0000000a;
1416 : 0000000c;
1417 : 00000001;
1418 : 00000002;
1419 : 00000000;
1420 : fffffffe;
1421 : fffffffb;
1422 : 00000010;
1423 : fffffff8;
1424 : 00000005;
1425 : 00000005;
1426 : 0000000a;
1427 : ffffffff;
1428 : fffffffb;
1429 : 0000001a;
1430 : ffffffed;
1431 : 00000005;
1432 : 0000000b;
1433 : 0000000c;
1434 : fffffff6;
1435 : fffffff6;
1436 : 0000000a;
1437 : 0000000a;
1438 : 00000005;
1439 : 0000000e;
1440 : 00000005;
1441 : 0000000f;
1442 : 00000005;
1443 : 00000000;
1444 : fffffffb;
1445 : 00000004;
1446 : 0000000e;
1447 : 0000000f;
1448 : 00000001;
1449 : 0000000b;
1450 : 0000000f;
1451 : fffffffa;
1452 : 00000000;
1453 : 00000000;
1454 : 0000000f;
1455 : 00000013;
1456 : fffffffb;
1457 : fffffffe;
1458 : 0000000a;
1459 : 00000005;
1460 : 00000015;
1461 : fffffffb;
1462 : 00000005;
1463 : fffffff6;
1464 : 00000006;
1465 : ffffffff;
1466 : 00000005;
1467 : 00000004;
1468 : fffffffc;
1469 : fffffff5;
1470 : 00000005;
1471 : ffffffed;
1472 : 0000000f;
1473 : 00000014;
1474 : 00000013;
1475 : 00000004;
1476 : fffffffd;
1477 : 00000010;
1478 : fffffffe;
1479 : ffffffea;
1480 : 00000005;
1481 : ffffffff;
1482 : 00000000;
1483 : 00000000;
1484 : ffffffff;
1485 : fffffffb;
1486 : 00000000;
1487 : fffffffe;
1488 : 0000000a;
1489 : 0000000a;
1490 : fffffffd;
1491 : fffffffd;
1492 : 00000008;
1493 : 00000009;
1494 : fffffff7;
1495 : 00000004;
1496 : 0000000b;
1497 : fffffff8;
1498 : fffffff7;
1499 : 00000007;
1500 : 00000000;
1501 : fffffff6;
1502 : ffffffec;
1503 : 00000001;
1504 : 0000000a;
1505 : 0000000a;
1506 : fffffff1;
1507 : fffffff5;
1508 : fffffffb;
1509 : fffffff6;
1510 : 00000009;
1511 : 00000005;
1512 : fffffffb;
1513 : 00000000;
1514 : 0000001b;
1515 : 00000004;
1516 : 00000009;
1517 : fffffff6;
1518 : fffffff8;
1519 : 00000000;
1520 : 00000000;
1521 : 00000002;
1522 : 00000003;
1523 : 00000002;
1524 : 00000000;
1525 : fffffffb;
1526 : fffffffb;
1527 : 00000005;
1528 : fffffff7;
1529 : fffffff2;
1530 : 0000000b;
1531 : 0000000a;
1532 : 00000005;
1533 : 00000007;
1534 : 00000004;
1535 : 00000000;
1536 : 0000000a;
1537 : 0000000f;
1538 : 00000000;
1539 : ffffffed;
1540 : 00000005;
1541 : 00000005;
1542 : fffffffb;
1543 : 0000000a;
1544 : 00000000;
1545 : fffffff2;
1546 : 00000005;
1547 : 0000000b;
1548 : fffffffb;
1549 : 00000005;
1550 : 00000000;
1551 : 00000000;
1552 : fffffffb;
1553 : fffffff8;
1554 : 0000001e;
1555 : 00000005;
1556 : fffffff2;
1557 : 00000000;
1558 : 0000000f;
1559 : 0000000a;
1560 : 0000000f;
1561 : 00000005;
1562 : fffffffd;
1563 : fffffff6;
1564 : fffffff5;
1565 : ffffffec;
1566 : ffffffff;
1567 : 0000000a;
1568 : 00000005;
1569 : 00000000;
1570 : 00000000;
1571 : fffffff6;
1572 : 00000005;
1573 : 00000013;
1574 : 00000009;
1575 : ffffffef;
1576 : fffffffb;
1577 : 0000000b;
1578 : 00000014;
1579 : fffffffb;
1580 : 00000005;
1581 : 00000005;
1582 : 00000005;
1583 : 0000000a;
1584 : 0000000a;
1585 : fffffff1;
1586 : 00000009;
1587 : fffffffa;
1588 : 0000000a;
1589 : 00000005;
1590 : 00000009;
1591 : fffffff8;
1592 : 00000000;
1593 : 0000000a;
1594 : ffffffff;
1595 : fffffffb;
1596 : 00000005;
1597 : 00000005;
1598 : fffffff1;
1599 : 00000003;
1600 : 00000011;
1601 : 00000003;
1602 : 0000000a;
1603 : fffffffb;
1604 : 00000014;
1605 : fffffffb;
1606 : fffffffb;
1607 : 00000005;
1608 : 00000000;
1609 : 0000000b;
1610 : 00000007;
1611 : 0000000a;
1612 : fffffffb;
1613 : fffffffb;
1614 : fffffff1;
1615 : 00000010;
1616 : fffffff1;
1617 : fffffffb;
1618 : 00000005;
1619 : 0000000f;
1620 : ffffffe7;
1621 : 0000000b;
1622 : 0000000b;
1623 : fffffff8;
1624 : fffffffc;
1625 : fffffffe;
1626 : fffffff6;
1627 : 00000000;
1628 : 0000000f;
1629 : 00000013;
1630 : fffffff6;
1631 : fffffffd;
1632 : 00000005;
1633 : 00000016;
1634 : 00000000;
1635 : 00000000;
1636 : fffffffb;
1637 : 00000014;
1638 : fffffffb;
1639 : 00000005;
1640 : 00000000;
1641 : fffffff6;
1642 : fffffffd;
1643 : 0000000f;
1644 : fffffffb;
1645 : 00000005;
1646 : fffffffb;
1647 : 00000000;
1648 : 0000001b;
1649 : 00000000;
1650 : 00000005;
1651 : 00000005;
1652 : fffffff1;
1653 : fffffff6;
1654 : 00000014;
1655 : 0000000a;
1656 : fffffff2;
1657 : ffffffec;
1658 : fffffffc;
1659 : fffffffc;
1660 : fffffffe;
1661 : 00000003;
1662 : 00000003;
1663 : fffffff1;
1664 : fffffff1;
1665 : 0000000a;
1666 : 0000000a;
1667 : fffffff4;
1668 : 0000000a;
1669 : 0000000f;
1670 : 00000003;
1671 : fffffffb;
1672 : fffffffb;
1673 : 0000000a;
1674 : 00000014;
1675 : fffffffb;
1676 : 00000005;
1677 : 0000000f;
1678 : fffffff1;
1679 : 00000005;
1680 : 00000011;
1681 : 00000005;
1682 : 00000014;
1683 : 00000008;
1684 : 00000000;
1685 : fffffff8;
1686 : 0000000f;
1687 : 0000000b;
1688 : 00000005;
1689 : 0000000a;
1690 : 00000000;
1691 : 00000000;
1692 : 00000000;
1693 : 0000000e;
1694 : 00000014;
1695 : 00000000;
1696 : fffffffb;
1697 : 00000000;
1698 : fffffffb;
1699 : fffffffe;
1700 : 0000000f;
1701 : fffffff6;
1702 : 00000000;
1703 : fffffffb;
1704 : 00000000;
1705 : 00000000;
1706 : 00000003;
1707 : fffffff6;
1708 : 00000005;
1709 : 0000000a;
1710 : 00000005;
1711 : 00000000;
1712 : fffffff6;
1713 : fffffffe;
1714 : 0000000e;
1715 : fffffff7;
1716 : 00000000;
1717 : fffffff2;
1718 : fffffffb;
1719 : fffffffd;
1720 : 0000000a;
1721 : ffffffff;
1722 : ffffffff;
1723 : fffffffb;
1724 : 0000000f;
1725 : 00000014;
1726 : 00000005;
1727 : fffffff6;
1728 : 00000000;
1729 : fffffffd;
1730 : fffffff6;
1731 : 00000000;
1732 : 00000000;
1733 : 0000000f;
1734 : fffffffe;
1735 : 00000005;
1736 : 0000000a;
1737 : 00000000;
1738 : fffffffb;
1739 : fffffffe;
1740 : 0000000f;
1741 : 00000005;
1742 : fffffffb;
1743 : fffffff2;
1744 : fffffffc;
1745 : fffffffb;
1746 : 0000000f;
1747 : 00000005;
1748 : 00000000;
1749 : 0000000b;
1750 : fffffff6;
1751 : fffffff1;
1752 : fffffffb;
1753 : ffffffec;
1754 : 00000003;
1755 : 00000000;
1756 : 00000005;
1757 : fffffffb;
1758 : 00000002;
1759 : fffffffb;
1760 : fffffffb;
1761 : 0000000a;
1762 : 0000000a;
1763 : 00000005;
1764 : 0000000a;
1765 : 00000005;
1766 : fffffffb;
1767 : fffffff1;
1768 : 00000000;
1769 : 00000005;
1770 : fffffffb;
1771 : 00000009;
1772 : fffffffb;
1773 : 00000014;
1774 : 00000005;
1775 : 0000000f;
1776 : fffffff8;
1777 : fffffffb;
1778 : 00000008;
1779 : 00000000;
1780 : 00000005;
1781 : 00000005;
1782 : 00000005;
1783 : 00000004;
1784 : fffffffb;
1785 : fffffffb;
1786 : 00000004;
1787 : 00000000;
1788 : 00000005;
1789 : fffffff9;
1790 : 00000008;
1791 : 00000005;
1792 : 0000000a;
1793 : 00000003;
1794 : 0000000e;
1795 : 00000005;
1796 : 00000005;
1797 : 00000015;
1798 : fffffffb;
1799 : 0000000a;
1800 : 00000005;
1801 : fffffffe;
1802 : 00000005;
1803 : fffffffe;
1804 : 0000000f;
1805 : fffffff8;
1806 : 00000000;
1807 : 00000014;
1808 : 0000000d;
1809 : 0000000f;
1810 : fffffffb;
1811 : 00000005;
1812 : 00000003;
1813 : 00000004;
1814 : 00000003;
1815 : 00000005;
1816 : 0000000b;
1817 : 00000000;
1818 : ffffffff;
1819 : 00000014;
1820 : 00000009;
1821 : fffffffb;
1822 : ffffffff;
1823 : 00000014;
1824 : 00000003;
1825 : 00000000;
1826 : 00000000;
1827 : fffffffb;
1828 : fffffffb;
1829 : 00000014;
1830 : 0000000e;
1831 : 00000008;
1832 : fffffff6;
1833 : 0000000f;
1834 : 0000000f;
1835 : 00000000;
1836 : 00000008;
1837 : 00000005;
1838 : fffffffb;
1839 : fffffffb;
1840 : 0000000f;
1841 : 0000000c;
1842 : 00000005;
1843 : fffffff5;
1844 : 00000005;
1845 : ffffffed;
1846 : 00000004;
1847 : fffffffe;
1848 : fffffff6;
1849 : 0000000b;
1850 : 0000000f;
1851 : 0000000f;
1852 : 0000000b;
1853 : 00000003;
1854 : 0000000a;
1855 : 0000000f;
1856 : fffffffb;
1857 : fffffff6;
1858 : 00000000;
1859 : fffffff6;
1860 : fffffffe;
1861 : 00000005;
1862 : 00000009;
1863 : fffffff6;
1864 : 0000000a;
1865 : 00000006;
1866 : fffffffb;
1867 : 00000000;
1868 : fffffff2;
1869 : fffffffb;
1870 : 0000000b;
1871 : fffffffb;
1872 : fffffffc;
1873 : 00000005;
1874 : 00000009;
1875 : fffffffb;
1876 : 00000000;
1877 : 00000005;
1878 : fffffff6;
1879 : fffffffc;
1880 : 00000000;
1881 : fffffff0;
1882 : 0000000b;
1883 : fffffff5;
1884 : 00000000;
1885 : fffffff1;
1886 : 00000005;
1887 : 0000000e;
1888 : 00000005;
1889 : fffffffc;
1890 : 00000000;
1891 : 00000005;
1892 : fffffff5;
1893 : 00000007;
1894 : 00000005;
1895 : 00000013;
1896 : 00000005;
1897 : 00000005;
1898 : 00000005;
1899 : 00000000;
1900 : 00000000;
1901 : 00000000;
1902 : 00000000;
1903 : 0000000f;
1904 : 0000000c;
1905 : fffffff1;
1906 : 00000000;
1907 : 00000005;
1908 : 00000000;
1909 : fffffff6;
1910 : fffffffb;
1911 : 00000011;
1912 : 0000000a;
1913 : fffffffb;
1914 : ffffffed;
1915 : 00000000;
1916 : 00000000;
1917 : 00000000;
1918 : 00000000;
1919 : 00000000;
1920 : 00000000;
1921 : fffffff1;
1922 : 00000005;
1923 : 0000000b;
1924 : 0000000c;
1925 : 00000005;
1926 : fffffffb;
1927 : fffffffb;
1928 : fffffff8;
1929 : fffffff8;
1930 : 00000013;
1931 : 00000005;
1932 : 00000005;
1933 : fffffff5;
1934 : 00000003;
1935 : 00000000;
1936 : 00000001;
1937 : 00000005;
1938 : fffffff8;
1939 : 00000000;
1940 : fffffff6;
1941 : 00000004;
1942 : 00000005;
1943 : fffffffc;
1944 : 00000000;
1945 : 00000000;
1946 : fffffff1;
1947 : fffffff1;
1948 : 00000000;
1949 : 00000013;
1950 : 00000005;
1951 : 00000014;
1952 : fffffff6;
1953 : fffffff1;
1954 : 0000000a;
1955 : 00000000;
1956 : 00000014;
1957 : 00000000;
1958 : fffffff7;
1959 : 00000000;
1960 : fffffff1;
1961 : 0000000a;
1962 : 00000000;
1963 : 00000004;
1964 : 00000005;
1965 : 00000009;
1966 : fffffff2;
1967 : fffffff7;
1968 : fffffff1;
1969 : 00000014;
1970 : fffffffb;
1971 : fffffffc;
1972 : fffffffa;
1973 : 0000000f;
1974 : 00000000;
1975 : 00000003;
1976 : 0000000f;
1977 : fffffffb;
1978 : 00000000;
1979 : fffffff1;
1980 : fffffff6;
1981 : 00000000;
1982 : fffffff6;
1983 : fffffff6;
1984 : fffffffb;
1985 : 00000019;
1986 : 00000000;
1987 : 00000000;
1988 : 00000005;
1989 : 0000000a;
1990 : 00000005;
1991 : 00000000;
1992 : 00000000;
1993 : 00000000;
1994 : 0000000e;
1995 : fffffff6;
1996 : 0000000f;
1997 : 00000004;
1998 : fffffffb;
1999 : 00000000;
2000 : 0000000f;
2001 : 00000005;
2002 : fffffff1;
2003 : 00000004;
2004 : 00000005;
2005 : ffffffff;
2006 : 0000000a;
2007 : fffffffb;
2008 : fffffffc;
2009 : fffffff2;
2010 : 00000009;
2011 : 0000000a;
2012 : 0000000a;
2013 : 00000003;
2014 : fffffff1;
2015 : fffffffb;
2016 : 00000000;
2017 : 00000003;
2018 : 00000002;
2019 : fffffff5;
2020 : 00000000;
2021 : 00000008;
2022 : 00000005;
2023 : 00000005;
2024 : fffffffe;
2025 : 00000000;
2026 : 0000000f;
2027 : fffffffb;
2028 : fffffff6;
2029 : fffffff6;
2030 : 0000000e;
2031 : 0000000b;
2032 : 00000000;
2033 : ffffffff;
2034 : fffffff7;
2035 : fffffff7;
2036 : 0000000b;
2037 : fffffffb;
2038 : fffffff6;
2039 : fffffffe;
2040 : 00000000;
2041 : 0000000b;
2042 : fffffff0;
2043 : 0000000a;
2044 : 00000000;
2045 : 00000000;
2046 : 0000000f;
2047 : 0000000b;
2048 : 00000005;
2049 : fffffff6;
2050 : 00000005;
2051 : 00000000;
2052 : 00000005;
2053 : fffffffb;
2054 : fffffffb;
2055 : 00000000;
2056 : 0000000a;
2057 : 0000000a;
2058 : fffffff6;
2059 : 00000005;
2060 : 00000000;
2061 : 00000009;
2062 : fffffffb;
2063 : fffffff7;
2064 : 00000000;
2065 : fffffff6;
2066 : 0000000b;
2067 : 0000000a;
2068 : fffffffb;
2069 : 00000000;
2070 : 0000000a;
2071 : 00000005;
2072 : fffffff7;
2073 : fffffffb;
2074 : 00000003;
2075 : 00000000;
2076 : 0000000c;
2077 : 00000008;
2078 : 0000000a;
2079 : 0000000a;
2080 : fffffffb;
2081 : 0000000a;
2082 : fffffffb;
2083 : 00000005;
2084 : 00000005;
2085 : 00000004;
2086 : 0000000f;
2087 : fffffffb;
2088 : fffffffb;
2089 : 0000000a;
2090 : 0000000f;
2091 : 00000005;
2092 : 00000005;
2093 : 00000000;
2094 : 00000005;
2095 : 00000001;
2096 : 00000000;
2097 : fffffffb;
2098 : fffffff2;
2099 : 00000000;
2100 : fffffffd;
2101 : 00000008;
2102 : 0000000a;
2103 : 00000004;
2104 : fffffff6;
2105 : ffffffed;
2106 : 0000000a;
2107 : 0000000f;
2108 : fffffffb;
2109 : 0000000f;
2110 : fffffffb;
2111 : fffffffb;
2112 : 00000005;
2113 : fffffffb;
2114 : 00000005;
2115 : 0000000b;
2116 : fffffff5;
2117 : ffffffec;
2118 : fffffff6;
2119 : fffffffb;
2120 : 0000000e;
2121 : 00000000;
2122 : fffffffb;
2123 : fffffffe;
2124 : fffffff7;
2125 : fffffffb;
2126 : 00000010;
2127 : 00000002;
2128 : fffffffb;
2129 : 0000000a;
2130 : 0000000d;
2131 : 0000000b;
2132 : fffffff2;
2133 : 00000005;
2134 : fffffff6;
2135 : 0000000f;
2136 : 0000000b;
2137 : 00000005;
2138 : 00000009;
2139 : 00000005;
2140 : 0000000a;
2141 : fffffff1;
2142 : ffffffff;
2143 : 00000006;
2144 : ffffffec;
2145 : fffffff8;
2146 : 00000000;
2147 : 00000005;
2148 : fffffffb;
2149 : 00000003;
2150 : 0000000a;
2151 : fffffff6;
2152 : fffffff8;
2153 : fffffff8;
2154 : 00000000;
2155 : 0000000a;
2156 : fffffffe;
2157 : 00000000;
2158 : fffffff6;
2159 : 00000005;
2160 : 00000010;
2161 : 00000005;
2162 : fffffff7;
2163 : 00000000;
2164 : 00000000;
2165 : fffffffb;
2166 : fffffff1;
2167 : 00000005;
2168 : 00000005;
2169 : fffffff1;
2170 : fffffffb;
2171 : 0000000f;
2172 : 00000005;
2173 : 00000009;
2174 : 00000009;
2175 : 0000000a;
2176 : 0000000b;
2177 : 00000005;
2178 : 00000005;
2179 : 0000000c;
2180 : 0000000f;
2181 : fffffffc;
2182 : fffffff3;
2183 : 0000000a;
2184 : 0000000a;
2185 : 0000000a;
2186 : fffffff1;
2187 : 0000000f;
2188 : 00000004;
2189 : fffffffb;
2190 : 00000000;
2191 : 00000005;
2192 : 00000005;
2193 : 00000000;
2194 : 00000003;
2195 : fffffff1;
2196 : 0000000f;
2197 : 00000005;
2198 : fffffff1;
2199 : fffffff7;
2200 : 00000005;
2201 : 00000016;
2202 : 00000000;
2203 : 00000003;
2204 : 0000000a;
2205 : 0000000f;
2206 : 00000003;
2207 : fffffffb;
2208 : 00000009;
2209 : 00000005;
2210 : 0000000f;
2211 : 00000019;
2212 : fffffff6;
2213 : 00000000;
2214 : fffffff6;
2215 : fffffffb;
2216 : 00000005;
2217 : fffffffb;
2218 : 00000008;
2219 : fffffffb;
2220 : fffffff1;
2221 : 00000005;
2222 : 00000008;
2223 : 0000000a;
2224 : 0000000e;
2225 : 00000002;
2226 : 0000000a;
2227 : 00000019;
2228 : fffffff6;
2229 : 00000005;
2230 : 00000014;
2231 : 00000000;
2232 : 0000000a;
2233 : 0000000f;
2234 : fffffffb;
2235 : 00000000;
2236 : 00000005;
2237 : fffffffb;
2238 : 00000005;
2239 : 00000005;
2240 : fffffffb;
2241 : 0000000f;
2242 : 00000005;
2243 : 00000007;
2244 : ffffffff;
2245 : 00000009;
2246 : fffffffd;
2247 : 00000000;
2248 : 0000000a;
2249 : 00000005;
2250 : fffffffb;
2251 : fffffff2;
2252 : 00000005;
2253 : 00000009;
2254 : ffffffe9;
2255 : 00000005;
2256 : fffffff3;
2257 : 00000005;
2258 : 0000000a;
2259 : 0000000f;
2260 : 00000005;
2261 : 00000000;
2262 : 0000000d;
2263 : 00000000;
2264 : fffffffd;
2265 : 00000008;
2266 : ffffffff;
2267 : 0000000a;
2268 : 00000005;
2269 : 00000003;
2270 : 0000000a;
2271 : 00000006;
2272 : 0000000e;
2273 : fffffff7;
2274 : fffffff5;
2275 : 00000006;
2276 : 0000000a;
2277 : 00000000;
2278 : 00000000;
2279 : fffffff1;
2280 : fffffffc;
2281 : 00000005;
2282 : 00000000;
2283 : 00000009;
2284 : ffffffec;
2285 : 00000005;
2286 : 00000015;
2287 : 00000008;
2288 : fffffffb;
2289 : 00000005;
2290 : 0000000a;
2291 : fffffffd;
2292 : fffffffb;
2293 : ffffffec;
2294 : 0000000a;
2295 : 00000009;
2296 : ffffffed;
2297 : fffffffb;
2298 : ffffffec;
2299 : 00000005;
2300 : fffffff1;
2301 : 00000005;
2302 : fffffff6;
2303 : fffffffb;
2304 : 00000010;
2305 : fffffffe;
2306 : 00000009;
2307 : 0000000d;
2308 : fffffffd;
2309 : 00000006;
2310 : fffffffb;
2311 : 00000000;
2312 : fffffff6;
2313 : fffffff9;
2314 : 00000004;
2315 : 00000005;
2316 : fffffffb;
2317 : fffffffb;
2318 : 00000000;
2319 : 00000014;
2320 : 00000000;
2321 : 0000000a;
2322 : fffffff1;
2323 : 00000005;
2324 : fffffff1;
2325 : fffffff7;
2326 : fffffffe;
2327 : 00000000;
2328 : 0000000f;
2329 : fffffff5;
2330 : 00000005;
2331 : fffffffb;
2332 : fffffffb;
2333 : fffffffe;
2334 : 0000000a;
2335 : 00000005;
2336 : fffffffb;
2337 : 00000000;
2338 : 0000000e;
2339 : ffffffed;
2340 : fffffffc;
2341 : 00000005;
2342 : fffffff1;
2343 : 00000000;
2344 : 00000004;
2345 : fffffff7;
2346 : fffffff0;
2347 : ffffffff;
2348 : 00000003;
2349 : 00000019;
2350 : 0000000a;
2351 : 00000000;
2352 : 00000008;
2353 : fffffff0;
2354 : 0000000a;
2355 : 00000005;
2356 : 0000000e;
2357 : 0000000f;
2358 : 00000005;
2359 : fffffff6;
2360 : 00000005;
2361 : 00000000;
2362 : fffffffb;
2363 : 0000000a;
2364 : 0000000a;
2365 : 00000005;
2366 : 00000000;
2367 : 00000000;
2368 : fffffff6;
2369 : 0000000a;
2370 : 00000008;
2371 : 0000000e;
2372 : fffffffd;
2373 : 00000006;
2374 : 00000000;
2375 : 0000000e;
2376 : fffffff6;
2377 : 0000000a;
2378 : 00000000;
2379 : 00000014;
2380 : ffffffff;
2381 : 00000000;
2382 : fffffffb;
2383 : 0000000a;
2384 : 00000001;
2385 : ffffffec;
2386 : 00000000;
2387 : fffffffb;
2388 : 00000000;
2389 : 00000005;
2390 : fffffffb;
2391 : 00000006;
2392 : 00000000;
2393 : fffffffb;
2394 : 0000000f;
2395 : fffffffb;
2396 : 0000000e;
2397 : fffffff1;
2398 : 00000005;
2399 : 00000002;
2400 : fffffffb;
2401 : fffffffc;
2402 : 00000009;
2403 : 0000000a;
2404 : 00000000;
2405 : fffffff5;
2406 : 00000005;
2407 : 00000005;
2408 : 00000005;
2409 : 00000005;
2410 : 00000005;
2411 : 00000009;
2412 : 0000000f;
2413 : fffffffa;
2414 : fffffffb;
2415 : 00000004;
2416 : fffffff1;
2417 : fffffffd;
2418 : 00000000;
2419 : 0000000f;
2420 : 0000000a;
2421 : fffffff2;
2422 : 0000000a;
2423 : 00000000;
2424 : 00000005;
2425 : fffffff7;
2426 : 0000000b;
2427 : 0000000f;
2428 : 00000000;
2429 : fffffffe;
2430 : fffffff1;
2431 : fffffffd;
2432 : 00000005;
2433 : 0000000c;
2434 : fffffffd;
2435 : fffffff5;
2436 : fffffff2;
2437 : 00000016;
2438 : fffffffb;
2439 : 0000000f;
2440 : 00000009;
2441 : 0000000f;
2442 : fffffffb;
2443 : 00000005;
2444 : 0000000c;
2445 : 0000000a;
2446 : 00000000;
2447 : 00000003;
2448 : fffffff1;
2449 : fffffff6;
2450 : 00000005;
2451 : 0000000a;
2452 : fffffff6;
2453 : 00000004;
2454 : 00000005;
2455 : 0000000a;
2456 : fffffffd;
2457 : 0000000f;
2458 : fffffff6;
2459 : fffffffb;
2460 : 00000000;
2461 : fffffff5;
2462 : 00000000;
2463 : 00000008;
2464 : ffffffec;
2465 : fffffff1;
2466 : 0000000f;
2467 : 00000005;
2468 : 0000000a;
2469 : 00000013;
2470 : 00000009;
2471 : 00000008;
2472 : fffffffb;
2473 : fffffffb;
2474 : 00000005;
2475 : fffffff6;
2476 : fffffff8;
2477 : fffffff6;
2478 : fffffffd;
2479 : 00000000;
2480 : 00000005;
2481 : 0000000a;
2482 : 00000014;
2483 : 00000003;
2484 : 00000005;
2485 : fffffff6;
2486 : 00000000;
2487 : 00000005;
2488 : 00000005;
2489 : 00000005;
2490 : fffffff7;
2491 : 00000005;
2492 : ffffffec;
2493 : 00000005;
2494 : fffffff1;
2495 : fffffffc;
2496 : fffffff6;
2497 : fffffff6;
2498 : fffffff1;
2499 : 00000005;
2500 : fffffffd;
2501 : fffffff7;
2502 : fffffff6;
2503 : fffffffb;
2504 : fffffff6;
2505 : fffffffb;
2506 : 0000000a;
2507 : fffffffb;
2508 : 00000000;
2509 : 00000019;
2510 : 00000005;
2511 : 00000005;
2512 : 00000000;
2513 : fffffffb;
2514 : 00000000;
2515 : fffffff7;
2516 : 00000005;
2517 : 00000005;
2518 : 00000005;
2519 : 00000001;
2520 : fffffff7;
2521 : fffffff6;
2522 : 00000009;
2523 : 00000000;
2524 : ffffffff;
2525 : 00000003;
2526 : 00000005;
2527 : 00000000;
2528 : fffffff6;
2529 : fffffff6;
2530 : fffffff6;
2531 : fffffffb;
2532 : fffffff1;
2533 : fffffff5;
2534 : 00000009;
2535 : fffffff6;
2536 : fffffffb;
2537 : 00000001;
2538 : 0000000b;
2539 : fffffffd;
2540 : fffffffe;
2541 : 0000000a;
2542 : fffffffb;
2543 : fffffffb;
2544 : 00000000;
2545 : ffffffec;
2546 : 00000005;
2547 : fffffffd;
2548 : fffffff6;
2549 : fffffffb;
2550 : fffffff1;
2551 : 00000003;
2552 : 00000000;
2553 : 0000000f;
2554 : 00000000;
2555 : fffffffb;
2556 : 0000000f;
2557 : fffffff6;
2558 : fffffff6;
2559 : fffffffb;
2560 : 00000005;
2561 : 00000005;
2562 : fffffffd;
2563 : 00000010;
2564 : 0000000f;
2565 : 00000000;
2566 : fffffffb;
2567 : fffffff6;
2568 : 00000005;
2569 : fffffffc;
2570 : 0000000f;
2571 : 00000005;
2572 : 00000014;
2573 : fffffffb;
2574 : 00000000;
2575 : fffffffb;
2576 : 00000005;
2577 : 0000000a;
2578 : 0000000b;
2579 : 00000005;
2580 : 00000005;
2581 : 00000006;
2582 : 00000014;
2583 : 00000000;
2584 : fffffff7;
2585 : 00000005;
2586 : fffffffb;
2587 : 00000009;
2588 : 00000000;
2589 : 00000000;
2590 : fffffff8;
2591 : 0000000f;
2592 : 00000005;
2593 : 00000000;
2594 : 0000000f;
2595 : 0000000e;
2596 : fffffff6;
2597 : ffffffff;
2598 : 00000005;
2599 : 0000000f;
2600 : fffffff1;
2601 : 00000005;
2602 : 0000000f;
2603 : 00000005;
2604 : 0000000a;
2605 : fffffffb;
2606 : 00000005;
2607 : 00000005;
2608 : 0000000c;
2609 : fffffffa;
2610 : 0000000f;
2611 : 00000005;
2612 : ffffffef;
2613 : 00000000;
2614 : 00000000;
2615 : 00000005;
2616 : 00000005;
2617 : 00000005;
2618 : 00000009;
2619 : 00000005;
2620 : 00000000;
2621 : fffffff1;
2622 : fffffffb;
2623 : 0000000a;
2624 : 00000000;
2625 : fffffffb;
2626 : 00000008;
2627 : fffffffb;
2628 : 00000000;
2629 : 00000000;
2630 : 00000003;
2631 : fffffffb;
2632 : 00000004;
2633 : 00000000;
2634 : 00000000;
2635 : 00000019;
2636 : 0000000e;
2637 : 0000000a;
2638 : fffffff7;
2639 : fffffffe;
2640 : 00000000;
2641 : fffffffb;
2642 : 00000000;
2643 : fffffffe;
2644 : 0000000a;
2645 : 00000004;
2646 : 00000005;
2647 : 0000000f;
2648 : fffffffb;
2649 : fffffff8;
2650 : fffffffb;
2651 : 00000013;
2652 : fffffff1;
2653 : 00000000;
2654 : 00000005;
2655 : 0000000b;
2656 : 0000000a;
2657 : 00000009;
2658 : fffffff6;
2659 : 00000005;
2660 : 00000005;
2661 : fffffff6;
2662 : 0000000a;
2663 : fffffffd;
2664 : 00000008;
2665 : 00000005;
2666 : fffffffb;
2667 : fffffffb;
2668 : 00000000;
2669 : ffffffee;
2670 : 00000014;
2671 : fffffffc;
2672 : fffffffb;
2673 : fffffff6;
2674 : 0000000b;
2675 : 0000000b;
2676 : 0000000a;
2677 : 00000000;
2678 : 00000000;
2679 : fffffffd;
2680 : 0000000f;
2681 : 00000000;
2682 : 0000000a;
2683 : fffffffb;
2684 : 00000000;
2685 : fffffffb;
2686 : 00000003;
2687 : 0000000a;
2688 : fffffffb;
2689 : fffffffb;
2690 : fffffff6;
2691 : ffffffed;
2692 : fffffff6;
2693 : 0000000a;
2694 : ffffffff;
2695 : fffffffb;
2696 : fffffff7;
2697 : ffffffef;
2698 : 00000009;
2699 : 00000003;
2700 : 00000002;
2701 : 00000000;
2702 : 00000005;
2703 : 00000001;
2704 : 00000009;
2705 : 00000000;
2706 : 0000000a;
2707 : 0000000a;
2708 : fffffff6;
2709 : fffffff7;
2710 : 00000001;
2711 : fffffffb;
2712 : 00000000;
2713 : fffffff1;
2714 : fffffff6;
2715 : 00000005;
2716 : 00000000;
2717 : fffffffb;
2718 : fffffffe;
2719 : ffffffed;
2720 : 00000005;
2721 : 00000000;
2722 : fffffff1;
2723 : fffffffb;
2724 : 0000000f;
2725 : fffffffb;
2726 : fffffffb;
2727 : fffffffb;
2728 : 00000000;
2729 : ffffffed;
2730 : fffffffb;
2731 : 0000000e;
2732 : 0000000f;
2733 : 00000006;
2734 : 00000000;
2735 : fffffff7;
2736 : 00000003;
2737 : fffffffb;
2738 : 00000000;
2739 : 00000001;
2740 : fffffff6;
2741 : 00000005;
2742 : 00000005;
2743 : fffffff6;
2744 : 00000005;
2745 : 0000000a;
2746 : 00000004;
2747 : 00000014;
2748 : 00000000;
2749 : 00000000;
2750 : 00000000;
2751 : 0000000f;
2752 : fffffff7;
2753 : fffffff6;
2754 : 00000000;
2755 : 00000000;
2756 : 00000003;
2757 : 0000000f;
2758 : 00000000;
2759 : fffffff6;
2760 : 00000004;
2761 : 00000010;
2762 : ffffffe7;
2763 : fffffffc;
2764 : fffffffb;
2765 : fffffff5;
2766 : 00000005;
2767 : fffffff7;
2768 : 00000003;
2769 : 00000000;
2770 : fffffff6;
2771 : fffffffb;
2772 : 00000005;
2773 : 0000000b;
2774 : 00000008;
2775 : 00000005;
2776 : fffffff7;
2777 : 0000000a;
2778 : 00000000;
2779 : 00000002;
2780 : 00000005;
2781 : ffffffec;
2782 : 00000000;
2783 : 0000000f;
2784 : 0000000a;
2785 : 0000000a;
2786 : 00000005;
2787 : fffffff2;
2788 : ffffffec;
2789 : 00000003;
2790 : 00000000;
2791 : fffffffb;
2792 : fffffff6;
2793 : 00000005;
2794 : 00000014;
2795 : 00000000;
2796 : fffffffb;
2797 : 0000000a;
2798 : 00000005;
2799 : 0000000f;
2800 : 00000005;
2801 : fffffffb;
2802 : 00000000;
2803 : 0000000f;
2804 : fffffffb;
2805 : fffffff6;
2806 : fffffff1;
2807 : 00000009;
2808 : fffffffb;
2809 : ffffffed;
2810 : 00000005;
2811 : 00000000;
2812 : 00000005;
2813 : fffffff1;
2814 : 00000004;
2815 : 00000000;
2816 : 00000009;
2817 : 00000009;
2818 : 00000000;
2819 : 00000000;
2820 : fffffff2;
2821 : 00000005;
2822 : fffffffd;
2823 : 0000000a;
2824 : 00000005;
2825 : fffffffc;
2826 : 0000000a;
2827 : 0000000a;
2828 : 0000000a;
2829 : 00000007;
2830 : 00000010;
2831 : 00000007;
2832 : fffffff1;
2833 : fffffff6;
2834 : 00000000;
2835 : 00000003;
2836 : 00000000;
2837 : fffffffb;
2838 : fffffff1;
2839 : 0000000f;
2840 : 00000014;
2841 : fffffff0;
2842 : fffffff1;
2843 : 00000007;
2844 : 00000000;
2845 : 00000005;
2846 : 0000000a;
2847 : 00000005;
2848 : 00000000;
2849 : fffffff7;
2850 : 00000004;
2851 : fffffffb;
2852 : 00000001;
2853 : fffffffb;
2854 : ffffffec;
2855 : fffffffd;
2856 : 00000005;
2857 : fffffffb;
2858 : 00000000;
2859 : 00000014;
2860 : 0000000a;
2861 : fffffffb;
2862 : 00000005;
2863 : 0000000e;
2864 : 00000000;
2865 : 0000000a;
2866 : 00000005;
2867 : 00000003;
2868 : 00000009;
2869 : 00000003;
2870 : 00000000;
2871 : fffffff6;
2872 : 00000005;
2873 : 00000000;
2874 : 0000000f;
2875 : fffffffb;
2876 : 00000000;
2877 : fffffffe;
2878 : fffffffd;
2879 : fffffffb;
2880 : 00000000;
2881 : fffffffb;
2882 : ffffffe7;
2883 : 00000001;
2884 : fffffff7;
2885 : 00000005;
2886 : 0000000a;
2887 : 00000000;
2888 : 00000000;
2889 : fffffff2;
2890 : 00000000;
2891 : 0000000f;
2892 : fffffff6;
2893 : 00000000;
2894 : 00000006;
2895 : 00000005;
2896 : ffffffe2;
2897 : 00000005;
2898 : 00000000;
2899 : 00000005;
2900 : fffffffb;
2901 : fffffffa;
2902 : 00000005;
2903 : 00000001;
2904 : fffffffb;
2905 : 00000005;
2906 : fffffffb;
2907 : fffffff6;
2908 : 00000000;
2909 : 00000000;
2910 : 0000000f;
2911 : fffffff2;
2912 : 00000005;
2913 : 00000014;
2914 : 0000000a;
2915 : 0000000b;
2916 : 0000000f;
2917 : fffffff1;
2918 : fffffffb;
2919 : fffffff1;
2920 : fffffffb;
2921 : 00000005;
2922 : 0000000c;
2923 : ffffffff;
2924 : 00000005;
2925 : 00000000;
2926 : fffffffb;
2927 : fffffffb;
2928 : 00000000;
2929 : 00000005;
2930 : 0000000a;
2931 : 00000001;
2932 : 00000005;
2933 : 00000003;
2934 : 00000000;
2935 : fffffff6;
2936 : 00000000;
2937 : fffffffb;
2938 : 00000019;
2939 : 00000014;
2940 : 00000014;
2941 : 00000000;
2942 : 00000000;
2943 : 00000000;
2944 : 00000005;
2945 : fffffff6;
2946 : ffffffe7;
2947 : 0000000b;
2948 : 0000000c;
2949 : fffffff6;
2950 : 0000000a;
2951 : 0000000a;
2952 : ffffffed;
2953 : 00000005;
2954 : fffffffb;
2955 : fffffffb;
2956 : 0000000b;
2957 : 00000000;
2958 : 00000005;
2959 : 00000000;
2960 : 00000009;
2961 : 0000000e;
2962 : 00000009;
2963 : 0000000a;
2964 : fffffffb;
2965 : 00000005;
2966 : fffffff2;
2967 : 0000000f;
2968 : 00000014;
2969 : 00000009;
2970 : 00000000;
2971 : 00000000;
2972 : 00000000;
2973 : 00000000;
2974 : 00000005;
2975 : ffffffed;
2976 : fffffffb;
2977 : 00000010;
2978 : fffffff2;
2979 : 00000000;
2980 : 00000000;
2981 : 0000000a;
2982 : 0000000e;
2983 : 00000005;
2984 : 00000000;
2985 : fffffffb;
2986 : 0000000f;
2987 : 0000000b;
2988 : fffffffb;
2989 : 0000000a;
2990 : ffffffed;
2991 : 00000000;
2992 : 00000002;
2993 : 00000000;
2994 : 00000005;
2995 : 00000000;
2996 : fffffffe;
2997 : fffffff1;
2998 : fffffffb;
2999 : ffffffef;
3000 : 00000000;
3001 : 00000000;
3002 : ffffffec;
3003 : 00000005;
3004 : 00000009;
3005 : fffffffe;
3006 : 00000007;
3007 : 00000005;
3008 : 00000005;
3009 : 00000005;
3010 : fffffff6;
3011 : 00000002;
3012 : ffffffef;
3013 : fffffffb;
3014 : fffffffb;
3015 : 00000009;
3016 : 00000005;
3017 : 00000005;
3018 : fffffff1;
3019 : 00000014;
3020 : 0000000f;
3021 : ffffffff;
3022 : fffffffa;
3023 : 0000000f;
3024 : fffffff1;
3025 : 00000005;
3026 : ffffffff;
3027 : 00000005;
3028 : 0000000f;
3029 : fffffffb;
3030 : 00000000;
3031 : 00000014;
3032 : 00000005;
3033 : fffffff6;
3034 : fffffff2;
3035 : 00000005;
3036 : fffffffb;
3037 : fffffff1;
3038 : fffffff6;
3039 : 00000005;
3040 : 0000000f;
3041 : 00000000;
3042 : fffffffb;
3043 : 00000005;
3044 : fffffffb;
3045 : 0000001b;
3046 : fffffff6;
3047 : 0000000a;
3048 : 0000000b;
3049 : fffffff2;
3050 : 00000000;
3051 : 00000005;
3052 : 00000003;
3053 : fffffff2;
3054 : 00000005;
3055 : fffffff7;
3056 : 0000000a;
3057 : 00000009;
3058 : 0000000f;
3059 : fffffffb;
3060 : 00000005;
3061 : fffffff2;
3062 : 00000000;
3063 : 00000004;
3064 : 0000000f;
3065 : 0000000f;
3066 : 0000000a;
3067 : 0000000a;
3068 : fffffffb;
3069 : 00000011;
3070 : 0000000a;
3071 : 00000005;
3072 : ffffffec;
3073 : fffffffd;
3074 : fffffffb;
3075 : 00000005;
3076 : 00000005;
3077 : 0000000f;
3078 : 00000005;
3079 : 00000000;
3080 : fffffffe;
3081 : fffffff6;
3082 : fffffff1;
3083 : 00000000;
3084 : fffffff6;
3085 : 00000000;
3086 : 00000000;
3087 : fffffffc;
3088 : 00000019;
3089 : fffffff1;
3090 : fffffff6;
3091 : fffffff1;
3092 : 00000000;
3093 : 0000000a;
3094 : fffffffb;
3095 : 0000000f;
3096 : ffffffff;
3097 : 0000000a;
3098 : 00000000;
3099 : 00000000;
3100 : 00000000;
3101 : fffffff5;
3102 : 0000000f;
3103 : 00000003;
3104 : 00000005;
3105 : 00000000;
3106 : 0000000f;
3107 : 00000003;
3108 : 00000005;
3109 : 00000007;
3110 : fffffffb;
3111 : 0000000f;
3112 : 0000000a;
3113 : 00000005;
3114 : 0000000b;
3115 : 00000000;
3116 : fffffff8;
3117 : 00000004;
3118 : fffffffe;
3119 : fffffff7;
3120 : 00000000;
3121 : fffffff6;
3122 : 00000005;
3123 : 00000000;
3124 : 00000000;
3125 : fffffffd;
3126 : 0000000a;
3127 : ffffffff;
3128 : 00000000;
3129 : 00000005;
3130 : 00000005;
3131 : 00000005;
3132 : 00000003;
3133 : 0000000a;
3134 : fffffff1;
3135 : 00000005;
3136 : 00000005;
3137 : 00000013;
3138 : 00000000;
3139 : 00000000;
3140 : 0000000a;
3141 : fffffff9;
3142 : 00000003;
3143 : fffffffb;
3144 : fffffffe;
3145 : 00000014;
3146 : 0000000a;
3147 : 00000002;
3148 : 0000000a;
3149 : 00000005;
3150 : 00000005;
3151 : 00000003;
3152 : 00000000;
3153 : 0000000a;
3154 : 00000003;
3155 : 00000009;
3156 : 00000009;
3157 : 0000000b;
3158 : 0000000b;
3159 : 00000014;
3160 : 00000019;
3161 : ffffffef;
3162 : 0000000f;
3163 : 0000000f;
3164 : 0000000b;
3165 : fffffff1;
3166 : fffffff4;
3167 : fffffffe;
3168 : fffffff6;
3169 : 00000005;
3170 : fffffffb;
3171 : 0000000f;
3172 : fffffffb;
3173 : 00000000;
3174 : 00000005;
3175 : fffffff6;
3176 : 00000005;
3177 : 00000013;
3178 : 00000005;
3179 : fffffffa;
3180 : 00000003;
3181 : 0000000a;
3182 : 00000014;
3183 : 0000000a;
3184 : ffffffec;
3185 : 00000009;
3186 : 0000000a;
3187 : fffffffd;
3188 : 00000002;
3189 : 00000014;
3190 : fffffff6;
3191 : 00000000;
3192 : fffffff6;
3193 : 00000005;
3194 : 0000000a;
3195 : 0000000e;
3196 : 00000005;
3197 : 00000005;
3198 : 00000014;
3199 : 00000005;
3200 : 00000005;
3201 : 00000002;
3202 : fffffff8;
3203 : fffffffb;
3204 : 0000000a;
3205 : 00000010;
3206 : 0000000b;
3207 : 00000000;
3208 : 00000005;
3209 : 0000000b;
3210 : 00000000;
3211 : fffffffc;
3212 : 0000000a;
3213 : 00000009;
3214 : fffffff8;
3215 : 0000000a;
3216 : 00000000;
3217 : 00000000;
3218 : 0000000f;
3219 : fffffff1;
3220 : fffffff6;
3221 : fffffffd;
3222 : 0000000a;
3223 : 00000000;
3224 : 0000000a;
3225 : 00000000;
3226 : 00000005;
3227 : 00000000;
3228 : 00000000;
3229 : 00000005;
3230 : 00000000;
3231 : fffffffc;
3232 : 00000000;
3233 : 00000000;
3234 : 00000013;
3235 : fffffffb;
3236 : fffffffb;
3237 : 00000002;
3238 : fffffff6;
3239 : 0000000f;
3240 : 00000005;
3241 : fffffffd;
3242 : 00000005;
3243 : 00000008;
3244 : 00000000;
3245 : 0000000e;
3246 : 00000000;
3247 : fffffff6;
3248 : 00000005;
3249 : 00000005;
3250 : ffffffed;
3251 : fffffffd;
3252 : fffffff9;
3253 : 00000000;
3254 : 0000000a;
3255 : fffffff6;
3256 : 00000000;
3257 : 00000008;
3258 : fffffffb;
3259 : 0000000e;
3260 : fffffffe;
3261 : fffffff6;
3262 : fffffff6;
3263 : fffffffb;
3264 : 0000000c;
3265 : 0000000a;
3266 : 00000005;
3267 : 00000005;
3268 : fffffff7;
3269 : 0000000b;
3270 : 00000009;
3271 : 00000005;
3272 : fffffff7;
3273 : ffffffee;
3274 : 00000005;
3275 : 0000000b;
3276 : 00000000;
3277 : fffffffb;
3278 : 00000000;
3279 : 00000007;
3280 : 00000000;
3281 : 0000000a;
3282 : 0000000a;
3283 : 0000000f;
3284 : 00000005;
3285 : fffffff7;
3286 : 00000000;
3287 : 0000000f;
3288 : 0000000f;
3289 : fffffffb;
3290 : 0000000b;
3291 : fffffff6;
3292 : 00000009;
3293 : fffffffb;
3294 : fffffffb;
3295 : 0000000e;
3296 : fffffff4;
3297 : ffffffeb;
3298 : fffffffd;
3299 : fffffff1;
3300 : 00000005;
3301 : 00000000;
3302 : 0000000a;
3303 : 00000009;
3304 : fffffffb;
3305 : 00000000;
3306 : 00000005;
3307 : fffffffb;
3308 : 00000014;
3309 : 00000001;
3310 : ffffffff;
3311 : 00000005;
3312 : 00000004;
3313 : fffffff2;
3314 : fffffffa;
3315 : fffffffb;
3316 : 00000000;
3317 : 00000000;
3318 : ffffffff;
3319 : 00000005;
3320 : 0000000f;
3321 : 00000000;
3322 : fffffffb;
3323 : 0000000a;
3324 : fffffffb;
3325 : 00000005;
3326 : 0000000a;
3327 : 00000000;
3328 : fffffff6;
3329 : fffffffd;
3330 : 00000000;
3331 : 00000004;
3332 : 00000018;
3333 : 00000001;
3334 : 00000015;
3335 : 00000000;
3336 : fffffffb;
3337 : 00000011;
3338 : 00000003;
3339 : 00000001;
3340 : 00000005;
3341 : ffffffec;
3342 : fffffff6;
3343 : 00000002;
3344 : 00000000;
3345 : fffffff6;
3346 : 00000000;
3347 : 00000000;
3348 : 00000007;
3349 : ffffffee;
3350 : 0000000b;
3351 : fffffff5;
3352 : 00000005;
3353 : fffffffe;
3354 : 00000000;
3355 : 00000000;
3356 : 00000015;
3357 : 00000008;
3358 : 0000000b;
3359 : 00000001;
3360 : fffffffc;
3361 : fffffff6;
3362 : 0000000a;
3363 : fffffffb;
3364 : fffffffd;
3365 : 0000000a;
3366 : fffffff1;
3367 : 0000000e;
3368 : fffffff6;
3369 : 00000013;
3370 : 00000020;
3371 : fffffffa;
3372 : 00000000;
3373 : fffffffb;
3374 : fffffff2;
3375 : 00000005;
3376 : 00000009;
3377 : 00000003;
3378 : 00000000;
3379 : fffffff7;
3380 : 00000005;
3381 : fffffffb;
3382 : fffffffb;
3383 : fffffff1;
3384 : 00000004;
3385 : 00000006;
3386 : 0000000a;
3387 : 00000000;
3388 : 00000005;
3389 : fffffffe;
3390 : fffffffb;
3391 : 0000000b;
3392 : 00000000;
3393 : 00000013;
3394 : 00000005;
3395 : 00000009;
3396 : 0000000b;
3397 : 00000014;
3398 : 0000000f;
3399 : 0000000f;
3400 : 00000005;
3401 : fffffffb;
3402 : 0000000f;
3403 : ffffffe8;
3404 : fffffffb;
3405 : 00000005;
3406 : 00000003;
3407 : 00000005;
3408 : 00000000;
3409 : 00000019;
3410 : fffffffb;
3411 : 00000004;
3412 : 0000000a;
3413 : 0000000b;
3414 : 0000000a;
3415 : fffffff8;
3416 : 00000000;
3417 : fffffffb;
3418 : 0000000a;
3419 : 00000000;
3420 : fffffffb;
3421 : 00000008;
3422 : 00000000;
3423 : fffffffc;
3424 : fffffff6;
3425 : 00000000;
3426 : 0000000a;
3427 : 0000000a;
3428 : ffffffeb;
3429 : fffffff6;
3430 : 00000005;
3431 : 00000000;
3432 : fffffff6;
3433 : fffffffe;
3434 : 00000010;
3435 : 00000005;
3436 : fffffffb;
3437 : 00000000;
3438 : fffffffd;
3439 : 00000000;
3440 : fffffffb;
3441 : 0000000a;
3442 : 00000005;
3443 : 00000000;
3444 : fffffffb;
3445 : fffffff6;
3446 : 00000000;
3447 : 00000000;
3448 : 00000005;
3449 : 00000005;
3450 : 00000014;
3451 : 0000000b;
3452 : 00000009;
3453 : fffffffe;
3454 : fffffff6;
3455 : 00000005;
3456 : 00000005;
3457 : 00000005;
3458 : fffffff6;
3459 : 0000000e;
3460 : 00000000;
3461 : 00000000;
3462 : fffffff6;
3463 : 0000000a;
3464 : fffffffb;
3465 : 0000000b;
3466 : 00000008;
3467 : 00000005;
3468 : 00000005;
3469 : fffffffb;
3470 : 0000000a;
3471 : 0000000a;
3472 : ffffffed;
3473 : 00000002;
3474 : 00000001;
3475 : fffffffc;
3476 : 00000005;
3477 : 00000005;
3478 : fffffff8;
3479 : 00000005;
3480 : 00000006;
3481 : 00000014;
3482 : 0000000a;
3483 : ffffffff;
3484 : 00000009;
3485 : fffffffb;
3486 : 0000000a;
3487 : 00000015;
3488 : 0000000f;
3489 : 0000000f;
3490 : fffffffb;
3491 : ffffffe7;
3492 : 00000005;
3493 : fffffffb;
3494 : fffffffb;
3495 : 00000005;
3496 : 00000000;
3497 : 00000001;
3498 : fffffffb;
3499 : 00000005;
3500 : 0000000a;
3501 : 00000000;
3502 : ffffffff;
3503 : 00000009;
3504 : 00000005;
3505 : 00000004;
3506 : 00000006;
3507 : 00000000;
3508 : ffffffec;
3509 : 00000000;
3510 : 0000000a;
3511 : fffffff1;
3512 : fffffffb;
3513 : fffffffb;
3514 : 0000000f;
3515 : fffffffb;
3516 : 00000000;
3517 : 00000005;
3518 : 00000019;
3519 : 00000005;
3520 : fffffff6;
3521 : 00000005;
3522 : fffffff3;
3523 : 00000000;
3524 : fffffff2;
3525 : 0000000a;
3526 : fffffff4;
3527 : fffffffb;
3528 : fffffffb;
3529 : 0000000a;
3530 : 00000000;
3531 : 0000000a;
3532 : 00000014;
3533 : fffffff1;
3534 : fffffffc;
3535 : 00000005;
3536 : 00000007;
3537 : 0000000a;
3538 : fffffffd;
3539 : fffffffd;
3540 : 00000005;
3541 : 00000003;
3542 : ffffffe8;
3543 : fffffffc;
3544 : fffffff6;
3545 : 00000005;
3546 : 00000005;
3547 : 00000000;
3548 : fffffffd;
3549 : 00000005;
3550 : 00000005;
3551 : 00000003;
3552 : 0000000a;
3553 : 00000000;
3554 : 00000004;
3555 : 00000000;
3556 : 00000000;
3557 : 00000008;
3558 : 00000000;
3559 : 00000000;
3560 : 00000005;
3561 : 0000000a;
3562 : 0000000a;
3563 : 00000000;
3564 : 00000000;
3565 : fffffffb;
3566 : 00000005;
3567 : 00000000;
3568 : 00000000;
3569 : 0000000a;
3570 : 00000005;
3571 : 0000000a;
3572 : 00000000;
3573 : 0000000a;
3574 : fffffffb;
3575 : 00000005;
3576 : 00000000;
3577 : 00000002;
3578 : 00000000;
3579 : fffffffd;
3580 : 00000000;
3581 : 00000005;
3582 : 00000013;
3583 : 0000000f;
3584 : 0000000f;
3585 : fffffff6;
3586 : fffffff6;
3587 : fffffff9;
3588 : 00000003;
3589 : fffffffc;
3590 : 0000000b;
3591 : 00000000;
3592 : ffffffe7;
3593 : fffffffc;
3594 : 00000000;
3595 : 0000000e;
3596 : fffffffb;
3597 : fffffff6;
3598 : 00000005;
3599 : fffffffb;
3600 : 00000005;
3601 : 0000000f;
3602 : fffffff1;
3603 : 00000015;
3604 : 0000000f;
3605 : fffffff4;
3606 : 00000005;
3607 : 0000000f;
3608 : 00000010;
3609 : ffffffec;
3610 : fffffffb;
3611 : 00000000;
3612 : 00000000;
3613 : 00000018;
3614 : 0000000b;
3615 : fffffff2;
3616 : 0000000f;
3617 : fffffffb;
3618 : 00000005;
3619 : fffffff1;
3620 : 0000000c;
3621 : 00000008;
3622 : 00000000;
3623 : fffffffb;
3624 : 00000009;
3625 : fffffffc;
3626 : 00000008;
3627 : 00000005;
3628 : 00000003;
3629 : 00000009;
3630 : 00000005;
3631 : 00000009;
3632 : 00000005;
3633 : ffffffff;
3634 : 00000013;
3635 : 00000010;
3636 : fffffffb;
3637 : 00000003;
3638 : 00000008;
3639 : ffffffec;
3640 : 00000005;
3641 : ffffffe0;
3642 : 0000000b;
3643 : fffffffc;
3644 : 00000013;
3645 : 00000005;
3646 : fffffffc;
3647 : 0000000b;
3648 : 0000000a;
3649 : 0000000f;
3650 : 00000009;
3651 : fffffffb;
3652 : 00000005;
3653 : 00000005;
3654 : fffffff4;
3655 : fffffff1;
3656 : fffffff9;
3657 : 00000005;
3658 : 00000005;
3659 : fffffff2;
3660 : 00000005;
3661 : 0000000a;
3662 : 00000000;
3663 : 0000000a;
3664 : 00000005;
3665 : 0000000a;
3666 : 0000000f;
3667 : 00000005;
3668 : 00000000;
3669 : fffffff7;
3670 : fffffffd;
3671 : fffffffd;
3672 : 00000005;
3673 : fffffffb;
3674 : 00000005;
3675 : 00000000;
3676 : 00000000;
3677 : fffffffe;
3678 : 00000000;
3679 : fffffff8;
3680 : fffffffb;
3681 : 00000005;
3682 : 00000007;
3683 : fffffff7;
3684 : fffffffb;
3685 : fffffffd;
3686 : 00000005;
3687 : fffffffe;
3688 : 00000014;
3689 : 00000015;
3690 : fffffffb;
3691 : fffffff6;
3692 : 00000000;
3693 : 00000005;
3694 : fffffff6;
3695 : 0000000f;
3696 : 00000000;
3697 : 00000000;
3698 : 00000000;
3699 : 00000005;
3700 : 00000000;
3701 : 00000003;
3702 : fffffff2;
3703 : 00000002;
3704 : fffffffb;
3705 : 00000000;
3706 : fffffffb;
3707 : 00000003;
3708 : 0000000f;
3709 : 0000000f;
3710 : 00000002;
3711 : 0000000a;
3712 : 00000014;
3713 : fffffff6;
3714 : 0000000f;
3715 : 00000001;
3716 : 00000000;
3717 : fffffff1;
3718 : 00000005;
3719 : 00000005;
3720 : 00000000;
3721 : fffffffb;
3722 : 00000005;
3723 : 0000000a;
3724 : 0000000a;
3725 : 00000005;
3726 : 0000000b;
3727 : 00000001;
3728 : fffffffc;
3729 : fffffffb;
3730 : 00000005;
3731 : fffffff6;
3732 : fffffffb;
3733 : 00000004;
3734 : 00000001;
3735 : 0000000f;
3736 : 0000000b;
3737 : 0000000f;
3738 : 00000005;
3739 : 00000000;
3740 : fffffffb;
3741 : fffffff6;
3742 : fffffff6;
3743 : 00000005;
3744 : 0000000a;
3745 : 00000014;
3746 : 00000005;
3747 : 00000005;
3748 : fffffffb;
3749 : 0000000e;
3750 : fffffffb;
3751 : 00000000;
3752 : fffffff6;
3753 : 0000000f;
3754 : 00000005;
3755 : 00000000;
3756 : fffffffb;
3757 : 0000000a;
3758 : 00000004;
3759 : 00000000;
3760 : 00000007;
3761 : 00000000;
3762 : 00000005;
3763 : ffffffef;
3764 : fffffffb;
3765 : fffffffd;
3766 : 00000019;
3767 : 00000009;
3768 : 00000000;
3769 : 00000005;
3770 : 00000014;
3771 : fffffffb;
3772 : 00000000;
3773 : 0000000a;
3774 : fffffffb;
3775 : 00000000;
3776 : 00000005;
3777 : 0000000c;
3778 : 00000003;
3779 : 00000005;
3780 : 0000000f;
3781 : 0000000f;
3782 : 00000001;
3783 : fffffffb;
3784 : ffffffe7;
3785 : 00000000;
3786 : 00000000;
3787 : 00000000;
3788 : 0000000a;
3789 : ffffffff;
3790 : 00000005;
3791 : 00000001;
3792 : 00000005;
3793 : 00000008;
3794 : 00000005;
3795 : 00000005;
3796 : 0000000d;
3797 : 00000000;
3798 : 00000005;
3799 : 00000005;
3800 : 00000005;
3801 : fffffff2;
3802 : fffffffb;
3803 : 00000003;
3804 : fffffff6;
3805 : 00000000;
3806 : 00000001;
3807 : 00000000;
3808 : 0000000a;
3809 : ffffffec;
3810 : fffffffb;
3811 : fffffff7;
3812 : 00000005;
3813 : ffffffec;
3814 : 00000005;
3815 : 00000003;
3816 : fffffffc;
3817 : 00000000;
3818 : 00000000;
3819 : 00000011;
3820 : 00000014;
3821 : fffffff6;
3822 : 00000005;
3823 : 0000000b;
3824 : fffffff5;
3825 : fffffffb;
3826 : 0000000f;
3827 : 00000005;
3828 : 00000000;
3829 : 0000000a;
3830 : 00000005;
3831 : 0000000f;
3832 : 00000005;
3833 : fffffff6;
3834 : 0000000f;
3835 : 00000000;
3836 : fffffff6;
3837 : 0000000a;
3838 : 00000005;
3839 : fffffffb;
3840 : fffffffb;
3841 : 0000000f;
3842 : 00000008;
3843 : fffffff6;
3844 : fffffffe;
3845 : 00000010;
3846 : 0000000a;
3847 : fffffffb;
3848 : 00000005;
3849 : 0000000a;
3850 : 00000000;
3851 : 00000003;
3852 : 0000000b;
3853 : 00000005;
3854 : fffffff6;
3855 : 0000000a;
3856 : 00000000;
3857 : 00000014;
3858 : 00000000;
3859 : 00000010;
3860 : 0000000f;
3861 : 00000005;
3862 : 0000000f;
3863 : 00000000;
3864 : fffffff7;
3865 : 00000005;
3866 : 00000014;
3867 : 0000000a;
3868 : fffffffb;
3869 : 00000002;
3870 : fffffff8;
3871 : fffffffd;
3872 : 0000000f;
3873 : 0000000a;
3874 : 00000000;
3875 : fffffffb;
3876 : 0000000a;
3877 : 00000005;
3878 : 00000007;
3879 : 00000005;
3880 : 00000005;
3881 : fffffffc;
3882 : 00000008;
3883 : 00000000;
3884 : 00000005;
3885 : 00000005;
3886 : 00000005;
3887 : 00000005;
3888 : 0000000c;
3889 : ffffffff;
3890 : fffffffb;
3891 : fffffff8;
3892 : fffffff6;
3893 : 00000005;
3894 : fffffff6;
3895 : 00000005;
3896 : 0000000a;
3897 : 00000000;
3898 : fffffff6;
3899 : fffffffb;
3900 : 0000000a;
3901 : 0000000f;
3902 : 00000005;
3903 : ffffffff;
3904 : 0000000f;
3905 : fffffff6;
3906 : fffffffb;
3907 : 00000005;
3908 : 0000000b;
3909 : 0000000b;
3910 : fffffffb;
3911 : 00000000;
3912 : fffffffb;
3913 : 0000000b;
3914 : fffffffb;
3915 : fffffffb;
3916 : 00000000;
3917 : fffffff5;
3918 : fffffff6;
3919 : 00000000;
3920 : 00000000;
3921 : 00000000;
3922 : fffffff5;
3923 : 00000004;
3924 : fffffffb;
3925 : 00000004;
3926 : fffffffb;
3927 : fffffffc;
3928 : 00000000;
3929 : fffffff2;
3930 : 00000005;
3931 : 00000000;
3932 : fffffffb;
3933 : 00000008;
3934 : 00000000;
3935 : 00000005;
3936 : fffffffb;
3937 : 00000000;
3938 : fffffff6;
3939 : 00000014;
3940 : 00000005;
3941 : 00000002;
3942 : 0000000f;
3943 : 0000000f;
3944 : fffffff1;
3945 : ffffffed;
3946 : 00000014;
3947 : 00000005;
3948 : 00000014;
3949 : fffffffb;
3950 : fffffffb;
3951 : 00000014;
3952 : 00000003;
3953 : fffffff1;
3954 : 00000014;
3955 : 00000005;
3956 : fffffffb;
3957 : fffffffb;
3958 : fffffffd;
3959 : 00000008;
3960 : fffffffb;
3961 : fffffff8;
3962 : 0000000f;
3963 : fffffffb;
3964 : 00000005;
3965 : fffffffb;
3966 : 00000000;
3967 : 00000000;
3968 : fffffff6;
3969 : 00000003;
3970 : 00000011;
3971 : 0000000d;
3972 : 00000003;
3973 : 0000000f;
3974 : fffffff6;
3975 : 00000005;
3976 : 00000000;
3977 : 00000003;
3978 : 00000000;
3979 : 00000000;
3980 : 00000005;
3981 : 0000000f;
3982 : 00000005;
3983 : 0000000f;
3984 : 00000009;
3985 : fffffffb;
3986 : 00000003;
3987 : fffffffb;
3988 : 00000005;
3989 : fffffff2;
3990 : ffffffe8;
3991 : ffffffed;
3992 : fffffffb;
3993 : fffffff5;
3994 : ffffffed;
3995 : 00000005;
3996 : 00000005;
3997 : 00000003;
3998 : fffffff7;
3999 : 0000000a;
4000 : 00000005;
4001 : fffffff6;
4002 : 0000000a;
4003 : fffffff7;
4004 : 00000005;
4005 : 0000000a;
4006 : 00000005;
4007 : fffffffb;
4008 : 00000005;
4009 : 00000014;
4010 : 00000000;
4011 : fffffff6;
4012 : fffffffb;
4013 : 0000000a;
4014 : 00000005;
4015 : 00000005;
4016 : 00000000;
4017 : fffffffd;
4018 : 00000003;
4019 : 00000007;
4020 : 00000000;
4021 : fffffff7;
4022 : 00000000;
4023 : fffffffb;
4024 : fffffff6;
4025 : 00000003;
4026 : 0000000b;
4027 : 00000009;
4028 : 00000002;
4029 : 0000000f;
4030 : 0000001a;
4031 : 00000005;
4032 : fffffff1;
4033 : fffffffe;
4034 : 00000000;
4035 : 0000000a;
4036 : 00000000;
4037 : 00000000;
4038 : 00000010;
4039 : fffffff1;
4040 : 00000005;
4041 : fffffff6;
4042 : ffffffed;
4043 : fffffff9;
4044 : 00000006;
4045 : 00000005;
4046 : 00000009;
4047 : fffffff1;
4048 : 00000000;
4049 : 0000000f;
4050 : fffffffe;
4051 : 00000005;
4052 : 00000014;
4053 : ffffffe9;
4054 : fffffff7;
4055 : fffffffd;
4056 : 00000015;
4057 : 0000000f;
4058 : 00000000;
4059 : 00000010;
4060 : 00000005;
4061 : 0000000f;
4062 : fffffff6;
4063 : 00000009;
4064 : 00000004;
4065 : 00000004;
4066 : 00000000;
4067 : 0000000e;
4068 : fffffffb;
4069 : 00000005;
4070 : fffffffb;
4071 : fffffffb;
4072 : 0000000a;
4073 : 0000000f;
4074 : 0000000f;
4075 : fffffff5;
4076 : 00000009;
4077 : 0000000a;
4078 : 00000018;
4079 : 00000000;
4080 : 00000005;
4081 : fffffff6;
4082 : 00000007;
4083 : fffffffe;
4084 : 0000000f;
4085 : fffffffb;
4086 : 00000005;
4087 : 00000000;
4088 : ffffffff;
4089 : ffffffed;
4090 : ffffffec;
4091 : 00000001;
4092 : 00000015;
4093 : fffffffb;
4094 : 00000014;
4095 : fffffffb;
END;
